{
    "ĠCombine": 29176,
    "Ġartery": 37646,
    "Americ": 5477,
    "Ġcorrecting": 39038,
    "Ġholiest": 47264,
    "ĠLocation": 13397,
    "ĠArkham": 29486,
    "uted": 7241,
    "Ġblessed": 18259,
    "Ġinconven": 20488,
    "accessible": 33780,
    "Ġfingerprint": 25338,
    "Ġhere": 994,
    "bred": 36074,
    "È": 132,
    "Ġorbs": 37403,
    "icy": 4611,
    "ĠKat": 8595,
    "Ġeruption": 36176,
    "Ġmisconduct": 17063,
    "ĠMontana": 18311,
    "Ġstroke": 14000,
    "steam": 21465,
    "unes": 4015,
    "Ġwaive": 40307,
    "Ġtraders": 21703,
    "Ġconflicted": 46060,
    "Ġtweaked": 38304,
    "Ġsubt": 13284,
    "ĠLust": 43883,
    "Ge": 10082,
    "Chain": 35491,
    "ĠFish": 13388,
    "Ġserved": 4983,
    "net": 3262,
    "Ġfacilitate": 15570,
    "Ġreferen": 16041,
    "ĠDuration": 22920,
    "ĠMIA": 44903,
    "omorphic": 46374,
    "Ġadore": 47194,
    "ĠSimmons": 22553,
    "icts": 14137,
    "ĠHarm": 17925,
    "ĠAlbum": 23999,
    "Ġeconom": 1707,
    "Ġselecting": 17246,
    "Ġcountryside": 25708,
    "FK": 26236,
    "ĠCO": 7375,
    "Ġfilings": 28058,
    "ĠGore": 17557,
    "ail": 603,
    "earch": 3679,
    "Ġcoaching": 13101,
    "Ġintertw": 39458,
    "Ġeff": 914,
    "ĠCriminal": 15531,
    "Ġpoison": 8764,
    "Ġseemingly": 9775,
    "acco": 8679,
    "Ġteens": 15508,
    "Rain": 31443,
    "Ġdecentralized": 26512,
    "utral": 6815,
    "Ġshelf": 18316,
    "Ġsoak": 33182,
    "Ġbrightest": 33871,
    "Ġ313": 35897,
    "Ġfue": 37911,
    "ĠEz": 21034,
    "Ġresearcher": 13453,
    "ĠBryce": 39560,
    "ĠToll": 44786,
    "Ġdiscipline": 12883,
    "ĠImport": 17267,
    "ĠNanto": 47614,
    "ĠShap": 29198,
    "Ġperipheral": 25514,
    "bis": 41907,
    "dial": 38969,
    "Ġ&": 1222,
    "Ġdynasty": 30968,
    "ĠKali": 30636,
    "Ġhash": 12234,
    "ĠPlaying": 23911,
    "Ġpivot": 30355,
    "ĠNAS": 7210,
    "Ġcanv": 39614,
    "Ġchoosing": 11236,
    "bers": 1213,
    "ĠAvg": 33455,
    "ĠEngineers": 27170,
    "Pri": 34487,
    "ĠThanksgiving": 21494,
    "backs": 10146,
    "141": 23756,
    "Ġdefin": 2730,
    "Ġaesthetic": 19713,
    "ĠNIGHT": 37707,
    "ĠHF": 42253,
    "Ġ----": 13498,
    "305": 22515,
    "Storage": 31425,
    "Ġcrafts": 28229,
    "Ġdiscrepancy": 34466,
    "Ġgoal": 3061,
    "ishing": 3929,
    "eden": 31829,
    "Ġattached": 7223,
    "utherland": 45384,
    "968": 38956,
    "ĠTalent": 29505,
    "Ġcro": 6763,
    "ĠPalest": 5480,
    "Ġimagination": 13843,
    "bye": 16390,
    "atari": 35554,
    "Ġpostage": 48552,
    "Ã°": 27214,
    "ĠRab": 28559,
    "Ġabolished": 32424,
    "hawk": 40624,
    "Ġfounded": 9393,
    "quarters": 8230,
    "Ġstructured": 20793,
    "ĠDul": 42148,
    "itor": 2072,
    "Ġexpertise": 13572,
    "ĠBarbara": 16685,
    "Ġclothes": 8242,
    "81": 6659,
    "Ġfellows": 36627,
    "Ġgly": 13874,
    "Ġlamp": 20450,
    "Ġoxidation": 37767,
    "Ġsmarter": 23714,
    "Ġpassword": 9206,
    "Ġglossy": 40551,
    "ĠMafia": 32676,
    "ĠsrfAttach": 43065,
    "snap": 45380,
    "notes": 17815,
    "Ġhangs": 28087,
    "Ġni": 37628,
    "Ġlousy": 46356,
    "Ġopinions": 9317,
    "ĠTOTAL": 36247,
    "Ġresidues": 47185,
    "Ġmanifested": 34300,
    "ĠWed": 3300,
    "ãģĨ": 29557,
    "Ġaverages": 25694,
    "ĠVanderbilt": 38684,
    "Heat": 39596,
    "ĠSpaces": 48086,
    "Ġmarg": 6145,
    "scape": 6794,
    "ĠMort": 10788,
    "ĠLIC": 38559,
    "Ġbis": 47457,
    "ĠpH": 22918,
    "ĠLauderdale": 45577,
    "Ġdownturn": 34540,
    "Ġanecdote": 49533,
    "ĠMinnesota": 8919,
    "Ġtravellers": 37217,
    "Ġjudge": 5052,
    "¥ŀ": 13945,
    "Ġmesh": 19609,
    "Ġgave": 2921,
    "Ġrelieved": 22598,
    "Ġclinicians": 41883,
    "ãĤ»": 47271,
    "575": 36189,
    "Ġbandits": 44149,
    "Ġcustomized": 27658,
    "ĠKorra": 38463,
    "GOP": 44962,
    "Ġcriminally": 46657,
    "ifer": 7087,
    "ex": 1069,
    "Ġ33": 4747,
    "Second": 12211,
    "Ġassault": 4641,
    "site": 15654,
    "ãģŁ": 25224,
    "ĠPV": 31392,
    "ppel": 46357,
    "Ġ1983": 13540,
    "IELD": 49979,
    ",,": 9832,
    "ĠAK": 15837,
    "ãĤ¼": 30432,
    "bitcoin": 35395,
    "resents": 6629,
    "Ġplay": 711,
    "Ġmillion": 1510,
    "ĠPolar": 32909,
    "Mah": 40936,
    "Ġsleep": 3993,
    "ĠDude": 40628,
    "Ġyoungster": 40944,
    "Ġreversed": 17687,
    "speech": 45862,
    "Team": 15592,
    "Ġtangled": 41431,
    "Ġstored": 8574,
    "ĠMIS": 50029,
    "atory": 2870,
    "####": 4242,
    "orea": 46215,
    "ĠHouston": 6995,
    "Ġmemor": 16181,
    "Ġlikes": 7832,
    "Ġmaritime": 30017,
    "ĠSpringfield": 27874,
    "ials": 8231,
    "v": 85,
    "ĠCTRL": 45249,
    "izations": 4582,
    "few": 32146,
    "Es": 23041,
    "Ġcooks": 38383,
    "prising": 14619,
    "},\"": 9063,
    "LG": 41257,
    "Ġenforcing": 26587,
    "AFTA": 32106,
    "Ze": 36056,
    "ased": 839,
    "Ġenerg": 19647,
    "Ġseize": 21031,
    "\":[\"": 26358,
    "Hom": 28718,
    "Oregon": 41243,
    "535": 44465,
    "Ġ1280": 37674,
    "bra": 16057,
    "carbon": 29255,
    "eating": 30041,
    "'?": 30960,
    "Ġcompose": 36664,
    "Ġpores": 47683,
    "locking": 48331,
    "Ġbre": 1449,
    "Ġecological": 25047,
    "Ġbuffalo": 45019,
    "ĠScot": 7130,
    "Ġshadows": 16187,
    "Ġcohort": 20812,
    "Ġmeme": 25336,
    "Ġrever": 33033,
    "code": 8189,
    "retty": 16100,
    "Ġmenu": 6859,
    "Ġglucose": 15701,
    "Ġenvision": 21786,
    "sound": 23661,
    "Ġunsc": 28594,
    "ĠGarner": 37383,
    "runtime": 43282,
    "Ġrespir": 21483,
    "ĠHom": 8074,
    "Ġlesbian": 17834,
    "Exec": 23002,
    "ich": 488,
    "abul": 16665,
    "Ġstreet": 4675,
    "Ġmetropolitan": 27953,
    "ĠMartial": 28526,
    "ĠTolkien": 32447,
    "doctor": 35580,
    "alsa": 32058,
    "anos": 40015,
    "ĠEver": 10776,
    "ĠSovereign": 44964,
    "Ġlaptops": 26635,
    "Ġhitherto": 45053,
    "Ġener": 2400,
    "daq": 48539,
    "ademic": 49113,
    "ö": 178,
    "ouri": 10300,
    "Ġsn": 3013,
    "ĠSn": 5489,
    "ĠAve": 12761,
    "Ġtwelve": 14104,
    "Ġoptimal": 16586,
    "Ġvaguely": 29627,
    "six": 19412,
    "Ġliving": 2877,
    "Forge": 19857,
    "ĠScha": 35756,
    "Ġtrustee": 36882,
    "Ġprofitable": 17967,
    "ĠWouldn": 43048,
    "ĠFont": 24060,
    "Ġomit": 42848,
    "ĠVol": 4709,
    "ĠLocations": 41277,
    "CAST": 44647,
    "Ġabundantly": 49244,
    "Ġ).": 6739,
    "189": 23362,
    "forms": 23914,
    "Ġculminating": 43896,
    "ĠBuddhism": 25932,
    "ĠKansas": 9470,
    "ĠPikachu": 38755,
    "bear": 33227,
    "Ġ....": 19424,
    "ĠBox": 8315,
    "Ġrecommendation": 15602,
    "Ġau": 35851,
    "ĠRecover": 49107,
    "407": 30120,
    "Ġcheaper": 11721,
    "Ġsandwich": 20433,
    "Ġknit": 30495,
    "ĠSerious": 32231,
    "ó": 175,
    "Ġforthcoming": 21220,
    "nces": 3179,
    "ĠBust": 36988,
    "Ġpiece": 3704,
    "ĠJeff": 5502,
    "Ġassessments": 21837,
    "Ġchill": 20493,
    "ĠChristians": 9316,
    "ĠRevelation": 33722,
    "depend": 45841,
    "ĠRich": 3998,
    "chieve": 24957,
    "Ġboards": 11490,
    "ik": 1134,
    "ĠSci": 10286,
    "ĠSans": 20845,
    "nuts": 31381,
    "Ġregulatory": 11344,
    "Wo": 49450,
    "Enter": 17469,
    "ĠFlake": 39727,
    "Ġassertions": 29965,
    "ĠLegion": 15778,
    "Ġmidrange": 49260,
    "Ġouts": 12198,
    "ĠNem": 22547,
    "478": 29059,
    "Ġbrothers": 9397,
    "ĠCreed": 24299,
    "Cal": 9771,
    "Ġunpredictable": 22900,
    "ĠPlans": 30305,
    "Ġshy": 15800,
    "Indiana": 49153,
    "Ġsworn": 20990,
    "Ġlowering": 21683,
    "ĠSubtle": 47419,
    "Ġpsychiatrist": 31207,
    "Ġbackyard": 24296,
    "ĠDespair": 39323,
    "Ġfrust": 6730,
    "ĠHoll": 11806,
    "ĠSwiss": 14780,
    "ĠOffic": 6328,
    "Q": 48,
    "uc": 1229,
    "acter": 7321,
    "Dave": 27984,
    "arya": 43898,
    "Ġbenz": 39601,
    "Hold": 26807,
    "['": 17816,
    "Ġinfectious": 25246,
    "Ġwra": 7917,
    "direct": 12942,
    "Mag": 13436,
    "Ġexpire": 24264,
    "Ġcortical": 35001,
    "ILY": 33340,
    "Ġallowance": 24930,
    "panel": 35330,
    "ĠJUL": 49349,
    "Ġdont": 17666,
    "ĠØ§ÙĦ": 28981,
    "Ġplastics": 42257,
    "Ġtechno": 44950,
    "ĠInstruments": 43953,
    "ĠRow": 11314,
    "ĠSeventh": 31848,
    "ĠLyn": 10350,
    "Ġrestricted": 10770,
    "Ġbridges": 19432,
    "Âº": 36165,
    "Ġhandset": 40445,
    "Alias": 40489,
    "Gameplay": 43241,
    "Ġbelongs": 14448,
    "Ġspecially": 20905,
    "ĠEngine": 7117,
    "Ġforgive": 20927,
    "Impro": 23028,
    "Ġstrings": 13042,
    "ĠPlate": 23648,
    "ŃĶ": 18433,
    "agar": 32452,
    "ĠWeaver": 29594,
    "Ġ820": 48964,
    "Ġcaptcha": 48972,
    "Ġtransmitted": 18307,
    "Ġrecognised": 20915,
    "Ġsophistication": 44809,
    "Ġpick": 2298,
    "ĠNW": 21966,
    "CLE": 29931,
    "ĠPompe": 36103,
    "ĠTale": 17388,
    "Ġslander": 47397,
    "uten": 7809,
    "Ġrestriction": 17504,
    "ĠGuest": 22358,
    "ĠKing": 2677,
    "ricia": 26654,
    "ircraft": 27002,
    "ĠMandatory": 47018,
    "ĠLiterally": 48414,
    "Ġrelations": 2316,
    "Ġduly": 35489,
    "ĠDelete": 23520,
    "Ġfrontal": 30424,
    "Ø": 148,
    "Ġdevastation": 34595,
    "ieve": 12311,
    "Ġunbeat": 36499,
    "ership": 49437,
    "Ja": 33186,
    "Ġcompost": 36541,
    "Ġframing": 30811,
    "ĠWoods": 16483,
    "ĠPublished": 26372,
    "SP": 4303,
    "Ġlands": 8604,
    "Ġlandslide": 36348,
    "Ġtons": 10860,
    "Ġexploded": 18750,
    "Ġlocate": 17276,
    "UU": 30100,
    "Ġforeigners": 19670,
    "ĠHelm": 28351,
    "learning": 40684,
    "jc": 48055,
    "Ġuniverses": 44751,
    "ĠCons": 3515,
    "Ġreports": 3136,
    "Ġcontra": 25736,
    "ĠMartha": 27243,
    "Ġattachments": 32161,
    "Corn": 41389,
    "tera": 49600,
    "Ġregistrations": 47997,
    "ĠOffline": 49749,
    "Ġsubstitution": 32097,
    "Ġsausage": 31889,
    "Ġimperson": 28671,
    "ĠVehicle": 21501,
    "ĠRose": 8049,
    "EL": 3698,
    "ĠEuph": 47441,
    "Ġinvade": 30419,
    "DAY": 26442,
    "Ġblocker": 38731,
    "ranked": 28282,
    "Ġlithium": 28444,
    "Ġsurrounding": 7346,
    "ĠBastard": 47209,
    "Ġjudgement": 23071,
    "Ø§Ø": 34247,
    "Ġâ": 2343,
    "âķ": 22880,
    "ĠMcD": 23394,
    "oug": 20805,
    "Ġanticipating": 40807,
    "ĠPl": 1345,
    "Ġveh": 2844,
    "Ġstartups": 21685,
    "ĠHistoric": 30426,
    "DP": 6322,
    "Ġsour": 11348,
    "Ġpawn": 29649,
    "anoia": 30661,
    "Ġcaster": 31680,
    "Ġserver": 4382,
    "Ġdescribed": 3417,
    "Ġpartisan": 19666,
    "Ġcontractual": 38026,
    "Ġlot": 1256,
    "Ġthroughout": 3690,
    "Ê": 134,
    "ĠBaylor": 28245,
    "nir": 32986,
    "Ġforcefully": 35701,
    "ĠRebell": 32032,
    "ktop": 16201,
    "ĠWasserman": 38997,
    "Ġappear": 1656,
    "ĠWraith": 40106,
    "Ġpsychiatry": 43557,
    "Ġmalls": 43890,
    "NECT": 48842,
    "Ġmaize": 49235,
    "Ab": 4826,
    "Ġstake": 10171,
    "common": 11321,
    "Ġdile": 22825,
    "ĠSounders": 42795,
    "Ġ432": 46393,
    "Ġremaining": 5637,
    "Ġrec": 664,
    "arger": 32270,
    "Ġultras": 32866,
    "ĠDemocratic": 4390,
    "ĠMulti": 15237,
    "ever": 964,
    "aunder": 21118,
    "104": 13464,
    "Ġmats": 46054,
    "ĠVolvo": 46950,
    "Ġnumerous": 6409,
    "ĠCole": 11768,
    "Ġcaffe": 21121,
    "amoto": 25384,
    "oran": 31884,
    "icht": 30830,
    "Ġkilometres": 23990,
    "ĠAaron": 12139,
    "ĠGordon": 11646,
    "ĠRPC": 39400,
    "Going": 27404,
    "bearing": 28655,
    "document": 22897,
    "ĠSingle": 14206,
    "Ġbeh": 1372,
    "Ġpassers": 45378,
    "ĠTick": 46093,
    "mag": 19726,
    "Ġawaiting": 21859,
    "horse": 30527,
    "vale": 41161,
    "Ġcapsule": 27855,
    "Ġ520": 36141,
    "Pet": 25803,
    "Ġwears": 17326,
    "Ġvanishing": 49047,
    "Ġparadigm": 23457,
    "ĠAMERICA": 49463,
    "Ġz": 1976,
    "Ironically": 44850,
    "ĠCinnamon": 48932,
    "ttp": 29281,
    "Now": 3844,
    "Bird": 42562,
    "ĠEntity": 20885,
    "ID": 2389,
    "ĠLou": 4768,
    "ĠTe": 1665,
    "Ġpurposely": 39033,
    "Brexit": 40730,
    "Ġadherent": 40971,
    "thens": 43895,
    "wy": 21768,
    "csv": 40664,
    "663": 45791,
    "653": 46435,
    "ĠSiberian": 47965,
    "Ġinexplicable": 49602,
    "Ġcu": 18912,
    "Ġranger": 43570,
    "wig": 28033,
    "ittees": 13263,
    "Ġ7000": 50205,
    "ĠAthlet": 18093,
    "Ġretention": 21545,
    "Sometimes": 15468,
    "Forward": 39746,
    "Ġtransplant": 23319,
    "Ġchirop": 47544,
    "Ġhealer": 44325,
    "Ġguessed": 25183,
    "Ġtimid": 44295,
    "Ġbast": 19918,
    "itutes": 16845,
    "Ġkne": 24813,
    "Optional": 30719,
    "Ġprecursor": 34826,
    "âĢ¦]": 21476,
    "ĠCrane": 38376,
    "Ġ185": 22855,
    "Ġsurfaced": 23786,
    "Ġath": 5782,
    "Ġrecurring": 24824,
    "ginx": 42822,
    "ona": 4450,
    "ĠExodus": 38557,
    "Ġmail": 6920,
    "Ġwing": 8539,
    "Connect": 13313,
    "Hour": 43223,
    "ĠSab": 9910,
    "8": 23,
    "ulpt": 13327,
    "Ġmanifestations": 38538,
    "Eh": 43894,
    "ĠRegister": 17296,
    "Ġembr": 7726,
    "241": 28872,
    "ESSION": 47621,
    "NPR": 38588,
    "Ġunlike": 5023,
    "Kh": 33155,
    "Ġpress": 1803,
    "ĠMont": 5575,
    "ĠCK": 45233,
    "Ġgrew": 6348,
    "Ġinflation": 10610,
    "ĠPluto": 32217,
    "Ġinjure": 42206,
    "associated": 32852,
    "scar": 13034,
    ")[": 38381,
    "Ġtwin": 15203,
    "Ġunnoticed": 33755,
    "ĠSmash": 18214,
    "ĠISO": 19694,
    "Ġfilibuster": 38940,
    "Ġ417": 47580,
    "Anti": 28795,
    "andan": 42509,
    "ĠCafe": 26965,
    "Ġresur": 15328,
    "literally": 43819,
    "Ġcharacterize": 34404,
    "ĠPassenger": 47239,
    "ennett": 48151,
    "ĠPy": 9485,
    "iste": 40833,
    "ono": 29941,
    "ĠCanadians": 14008,
    "erence": 1945,
    "Ġbirths": 27244,
    "ĠHawai": 10847,
    "1999": 18946,
    "Ġprincess": 21752,
    "Ġproportions": 23250,
    "Bal": 24597,
    "170": 17279,
    "tten": 32407,
    "1945": 41931,
    "IGN": 16284,
    "urized": 44796,
    "gly": 10853,
    "Ġtechnique": 8173,
    "Ġdetect": 4886,
    "Ġnarc": 16946,
    "ĠPocket": 27290,
    "âĸ": 5008,
    "Pakistan": 38485,
    "ĠOmni": 44251,
    "ociate": 47615,
    "Ġ1935": 30704,
    "Ġdeclarations": 31713,
    "ĠTut": 22792,
    "WAYS": 42451,
    "Ġministries": 45933,
    "ĠComm": 1520,
    "ourcing": 29985,
    "ickr": 18994,
    "ĠAnimation": 23535,
    "NOT": 11929,
    "ĠEdinburgh": 23475,
    "herence": 23545,
    "66": 2791,
    "ĠCla": 27166,
    "Easy": 28406,
    "Ġherald": 28783,
    "Ġspont": 18324,
    "enaries": 30216,
    "ĠProtesters": 46574,
    "Ġindependence": 10404,
    "where": 3003,
    "ĠJose": 5264,
    "ground": 2833,
    "Ġcongestion": 28014,
    "rams": 9474,
    "Ġsettled": 10282,
    "Ġcreating": 4441,
    "Ġcrimes": 6741,
    "Ġunrem": 49733,
    "Ġreboot": 20149,
    "uttering": 33598,
    "Ġattackers": 16391,
    "ĠMens": 43103,
    "ĠChak": 46620,
    "ĠQuit": 48887,
    "ĠERA": 18802,
    "Ġdeton": 20413,
    "stro": 20661,
    "TRY": 40405,
    "ecycle": 47510,
    "ĠHayward": 41960,
    "apan": 2674,
    "Ġcollaborators": 37886,
    "ĠInfinite": 22380,
    "ĠIgor": 46157,
    "ĠVul": 25442,
    "Ġinspecting": 49889,
    "ĠSharia": 38627,
    "Ġpenal": 23634,
    "Ġscratching": 34688,
    "me": 1326,
    "Ġbeacon": 34538,
    "ĠBeirut": 40702,
    "Ord": 35422,
    "Ġresearched": 30066,
    "Ġaffair": 14669,
    "Ġpretext": 35097,
    "Ġopposed": 6886,
    "Ġrebels": 12669,
    "ĠDefence": 16721,
    "angs": 27725,
    "Tex": 17005,
    "ARE": 12203,
    "Ġwashed": 18989,
    "ĠLaser": 23222,
    "Questions": 35741,
    "ĠGender": 20247,
    "Ġconstituents": 22573,
    "Ġsettling": 25446,
    "ĠOL": 22258,
    "Ġanth": 26794,
    "Ġkidneys": 41395,
    "Ġperk": 34407,
    "Ġinfo": 7508,
    "ĠQueensland": 21105,
    "Ġglad": 9675,
    "ĠIRA": 27859,
    "Ġasteroids": 43098,
    "CU": 43633,
    "Ġsoluble": 49467,
    "ĠForbes": 22720,
    "URE": 11335,
    "ĠDistance": 34600,
    "ĠRamirez": 34783,
    "mount": 14948,
    "iant": 3014,
    "Ġelders": 27495,
    "Strike": 31584,
    "Pie": 48223,
    "ounded": 6302,
    "Ġbutt": 8530,
    "Ġorc": 26393,
    "ĠHUD": 30219,
    "ĠOrt": 31427,
    "667": 28933,
    "Ġdispro": 15493,
    "utton": 21115,
    "reportprint": 30897,
    "Ġcircles": 13332,
    "Ġaccomp": 7555,
    "ĠMetall": 35616,
    "ijn": 48848,
    "ĠPhase": 18983,
    "Ġavenue": 36132,
    "ĠLash": 47137,
    "ĠCB": 10078,
    "ettlement": 27331,
    "west": 7038,
    "126": 19420,
    "ges": 3212,
    "education": 40796,
    "Ġadventure": 8855,
    "Ġ(@": 4275,
    "ĠGift": 21208,
    "itzerland": 13947,
    "Ġiconic": 14133,
    "grab": 32393,
    "ĠDarrell": 44882,
    "adders": 45940,
    "Ġthan": 621,
    "empt": 1791,
    "ROM": 33676,
    "Ġsticks": 16461,
    "Ġdissertation": 46793,
    "Ġnode": 10139,
    "Ġparticipating": 11983,
    "ĠCitiz": 12662,
    "Ġfollow": 1061,
    "Ġopera": 27296,
    "date": 4475,
    "Ġsticky": 23408,
    "EB": 30195,
    "ĠHapp": 18321,
    "Ġvegetable": 20236,
    "Ġshaping": 23610,
    "Ġrainbow": 27223,
    "ĠSat": 7031,
    "grades": 31177,
    "Ġbeam": 15584,
    "ĠTheatre": 15752,
    "237": 24693,
    "ĠMcMaster": 42284,
    "ĠOWN": 47672,
    "ĠMC": 13122,
    "Ġbackpack": 22526,
    "ĠRX": 24202,
    "ahime": 49997,
    "ĠWatt": 30263,
    "go": 2188,
    "Ġ329": 42141,
    "itates": 38654,
    "dies": 25990,
    "ĠAndrea": 23174,
    "311": 36244,
    "reen": 1361,
    "Ġcuisine": 33072,
    "REC": 38827,
    "Ġproviding": 4955,
    "lation": 7592,
    "ĠEvan": 21523,
    "ĠStevens": 20019,
    "ĠSeoul": 22372,
    "orph": 13425,
    "Ġkicks": 17364,
    "Ġmerchant": 20729,
    "Ġensemble": 34549,
    "Ġva": 46935,
    "Ġone": 530,
    "Ġrelationship": 2776,
    "Ġtile": 17763,
    "Ġgrin": 16770,
    "esity": 11924,
    "UFF": 47588,
    "ĠFarage": 33904,
    "ĠProvidence": 28319,
    "33": 2091,
    "files": 16624,
    "ĠMonitor": 18289,
    "secondary": 38238,
    "Ġscatter": 41058,
    "Ġfloat": 12178,
    "Ġdocuments": 4963,
    "ĠDemonic": 44057,
    "Ġmercury": 27394,
    "ĠSao": 47040,
    "Ġrink": 47925,
    "ĠRid": 23223,
    "ĠBuckley": 41493,
    "Ġfabric": 9664,
    "Ġla": 8591,
    "Ġ503": 44541,
    "Ġlobb": 14194,
    "Ġinfringing": 43498,
    "Ġtyre": 48216,
    "moon": 22977,
    "Ġ46": 6337,
    "Ġtech": 7261,
    "Ġrocky": 26898,
    "blocks": 27372,
    "ĠPerspect": 29845,
    "Ġimprov": 37080,
    "Ġannounces": 26459,
    "Ġwelcome": 7062,
    "Ġsleeves": 27409,
    "Ġsingular": 18032,
    "Ġdstg": 36935,
    "Ġprojectiles": 33281,
    "Ġhastily": 37205,
    "Ġstandings": 33864,
    "ĠYahoo": 16551,
    "Ġ{:": 46110,
    "Ġparks": 14860,
    "ĠEnterprise": 14973,
    "suit": 6063,
    "ĠColumbus": 14939,
    "Ġpointing": 10609,
    "FM": 23264,
    "Ġapprehend": 30200,
    "uming": 12595,
    "Ġriding": 10311,
    "Ġadvocate": 12811,
    "Ġtheatrical": 32010,
    "ãĥīãĥ©": 19073,
    "Ġactual": 4036,
    "Ġbox": 3091,
    "Ġmagnitude": 14735,
    "Ġarrogance": 35033,
    "ĠWel": 22268,
    "Ġallege": 33831,
    "ĠAbsolute": 36532,
    "Directory": 43055,
    "ript": 1968,
    "Obs": 31310,
    "Trend": 45461,
    "ĠHeidi": 45518,
    "ĠJPEG": 48561,
    "Ġangular": 32558,
    "Ġcommits": 23463,
    "Ġinhibited": 48582,
    "Ġinstitutions": 6712,
    "vironments": 12103,
    "Ġspecification": 20855,
    "Ġceasefire": 29717,
    "ĠGener": 2980,
    "ĠWell": 3894,
    "ĠSean": 11465,
    "Ġunreasonable": 24673,
    "ĠTrade": 9601,
    "Ġperspect": 6009,
    "ðŁ": 8582,
    "make": 15883,
    "Ġfraught": 39730,
    "ĠMorph": 41170,
    "Ġnegatively": 22533,
    "é¾įå": 19049,
    "Ġhal": 10284,
    "Ġinsect": 12833,
    "ĠButter": 18971,
    "Ġheater": 39844,
    "Ġburdens": 27127,
    "Ġengulfed": 40997,
    "Ġgeological": 41917,
    "olver": 14375,
    "Ġfaith": 4562,
    "ĠSept": 2362,
    "Less": 22058,
    "Ġlame": 30248,
    "Ġlaps": 24590,
    "Ġyeah": 10194,
    "Ġdigestive": 34616,
    "worst": 41430,
    "Ġcassette": 42812,
    "stores": 43409,
    "Ġcuff": 47291,
    "ĠTests": 30307,
    "Ġspaghetti": 48241,
    "ĠBender": 34535,
    "ĠUltra": 14563,
    "Ġembodies": 45370,
    "ĠUnits": 27719,
    "avia": 40543,
    "ĠReporting": 29595,
    "tom": 39532,
    "--------------------------------": 3880,
    "Ġfear": 3252,
    "Ġheartbeat": 36051,
    "770": 41820,
    "Ġdivul": 43373,
    "Ġnotion": 9495,
    "Ġbother": 11393,
    "Ġstrengthen": 12160,
    "Us": 5842,
    "Ġstreams": 15190,
    "GPU": 33346,
    "Ġsignings": 42113,
    "wild": 21992,
    "ĠJohannes": 38579,
    "DOC": 38715,
    "Ġelections": 7024,
    "Ġthrilling": 31610,
    "ĠReasons": 44923,
    "Ġclicked": 28384,
    "ĠAside": 28470,
    "ĠManga": 27024,
    "Neigh": 46445,
    "Ġunlocks": 23872,
    "Ġrepentance": 45893,
    "inge": 11912,
    "ĠEagle": 18456,
    "Yeah": 10995,
    "ĠErik": 22722,
    "Ġrecorder": 38156,
    "ĠWoman": 14381,
    "ĠFine": 17867,
    "Population": 45251,
    "Ġwagon": 31860,
    "Ġinvented": 15646,
    "Ġlib": 9195,
    "ĠPlus": 8227,
    "andom": 3749,
    "Ġbribery": 37388,
    "prison": 35156,
    "Ġbugs": 11316,
    "Ġtorrent": 24458,
    "eur": 23365,
    "Sam": 16305,
    "Ġpuzzled": 36907,
    "ĠOkinawa": 47221,
    "...": 986,
    "Ġ150": 6640,
    "ly": 306,
    "delay": 40850,
    "Danny": 45478,
    "ĠBritt": 26036,
    "ĠFilter": 25853,
    "Ġaccusations": 14227,
    "ĠOption": 16018,
    "ĠJag": 35687,
    "ĠBullets": 39984,
    "Ġbluntly": 44514,
    "ĠCumber": 38732,
    "Ġfulfill": 14658,
    "Ġtiles": 19867,
    "Ġ215": 22951,
    "ĠAccountability": 37159,
    "ĠSauce": 37618,
    "keeping": 19934,
    "Ġcervical": 36012,
    "sie": 44524,
    "Ġmanpower": 44803,
    "Had": 25383,
    "Isn": 41451,
    "olis": 8506,
    "Ġcardiac": 26077,
    "ĠIntrodu": 11036,
    "Ġcontinent": 15549,
    "Ġdesolate": 50244,
    "Ġlatch": 43140,
    "ĠClasses": 38884,
    "ff": 487,
    "412": 39226,
    "ommod": 8641,
    "ĠDow": 21842,
    "Ġaids": 31378,
    "Ġscreenshots": 23322,
    "Reporting": 42159,
    "Ġcornerback": 26683,
    "Ġmayoral": 43811,
    "Ġposs": 1184,
    "Ġlaunches": 18617,
    "Ġreactionary": 35578,
    "Ġmanufact": 4011,
    "Ġdaring": 27939,
    "Ġspecial": 2041,
    "Ġacknowled": 7333,
    "ĠOffense": 43824,
    "Ġportion": 6903,
    "solid": 39390,
    "Tank": 32978,
    "cking": 44377,
    "QB": 40291,
    "Ġinconsistencies": 40467,
    "ĵĺ": 23596,
    "ĠMcGr": 41114,
    "ifications": 6637,
    "icago": 4549,
    "Abstract": 23839,
    "orage": 4945,
    "Label": 33986,
    "dis": 6381,
    "ignore": 46430,
    "content": 11299,
    "information": 17018,
    "Ġperceptual": 49615,
    "ĠGuam": 39282,
    "Ġenergy": 2568,
    "ĠWH": 7655,
    "Ġevaluations": 34109,
    "Uk": 28425,
    "ĠFem": 31149,
    "Ġecosystems": 30020,
    "Ġautomatically": 6338,
    "Ġskating": 33051,
    "ĠâĢ": 564,
    "Ġafterlife": 45076,
    "Ġsteadfast": 35690,
    "Ġcontroversies": 36512,
    "Ġbattles": 10181,
    "Ġlegion": 41453,
    "Manufact": 44445,
    "Ġrevamped": 43814,
    "Ġcord": 15050,
    "Ġlinks": 6117,
    "Ġseparately": 13869,
    "Ġapolog": 8453,
    "ĠMathemat": 30535,
    "Ġfraudulent": 24627,
    "Ġincite": 49225,
    "Ġdining": 17423,
    "olyn": 34742,
    "pd": 30094,
    "Ġâī¥": 26870,
    "Ġpiled": 33654,
    "Ġabandonment": 38968,
    "ĠFrankenstein": 45738,
    "Ġconglomerate": 50240,
    "Ġindemn": 47846,
    "Ġmanipulation": 17512,
    "uffs": 18058,
    "ed": 276,
    "ĠIsrael": 2692,
    "ICS": 19505,
    "Ġyourselves": 27012,
    "Ġasthma": 28438,
    "ĠÂ§Â§": 47171,
    "ĠRogers": 15372,
    "jured": 38608,
    "Ġbystanders": 46652,
    "Chall": 41812,
    "ĠRothschild": 38198,
    "ĠConversation": 42427,
    "ĠPublishers": 43403,
    "Ġlegends": 24901,
    "rieg": 48429,
    "Ġ(-": 13841,
    "ĠHarlem": 39735,
    "iley": 9618,
    "cus": 9042,
    "emort": 24466,
    "ĠPS": 6599,
    "ryan": 29038,
    "mA": 42646,
    "ĠSchwarzenegger": 47507,
    "ĠCrazy": 19932,
    "Ġcrawling": 34499,
    "Ġattaches": 48262,
    "Ġexcav": 22659,
    "Ġbriefly": 11589,
    "they": 9930,
    "ĠWelcome": 19134,
    "ulence": 32401,
    "ĠSam": 3409,
    "Ġjacket": 15224,
    "ĠGOOD": 21090,
    "ĠShah": 18381,
    "Ġtrek": 30784,
    "Ġholding": 4769,
    "Reports": 37844,
    "Ġsnacks": 28487,
    "Ġsymbol": 6194,
    "Ġglorious": 21140,
    "Ġautomobile": 27930,
    "OTO": 26631,
    "ĠSecurities": 22971,
    "Ġuncle": 7711,
    "Ġsoutheastern": 35618,
    "043": 48768,
    "Ġcited": 9181,
    "ĠWarlock": 34787,
    "Ġstationary": 31607,
    "ĠBenedict": 28697,
    "ĠLR": 37491,
    "296": 27137,
    "Toy": 48236,
    "ĠLynd": 33561,
    "owned": 11990,
    "ĠMarriott": 49722,
    "Ġprosec": 19306,
    "rey": 4364,
    "ĠPass": 6251,
    "Ġtomorrow": 9439,
    "ĠSpencer": 15971,
    "Ġwarmer": 23254,
    "ouver": 10166,
    "ĠUnable": 27319,
    "Ġgon": 35140,
    "Ġsprayed": 35729,
    "perties": 18200,
    "ĠKenn": 7158,
    "imbabwe": 27175,
    "Ġpunishing": 28641,
    "RGB": 36982,
    "ĠSpy": 23688,
    "immigrant": 39835,
    "ĠChallenger": 39221,
    "Ġfollowed": 3940,
    "Ġnewer": 15064,
    "Ġpossessed": 17273,
    "Ġincumbent": 23526,
    "AME": 10067,
    "Ġdiseng": 39402,
    "Ġomnip": 40046,
    "ulent": 15288,
    "ĠScope": 41063,
    "seconds": 43012,
    "Ġwarehouses": 43675,
    "Ġdelaying": 35221,
    "Ġseparating": 27259,
    "ĠVega": 30310,
    "Ġ//": 3373,
    "Ġpainfully": 32258,
    "ĠBoll": 43479,
    "ixtape": 43938,
    "Ġbattle": 3344,
    "ĠHealth": 3893,
    "Ġpodium": 27941,
    "kok": 32004,
    "ernels": 44930,
    "Ġhorror": 9961,
    "INS": 20913,
    "Ġlittle": 1310,
    "Ġcanvas": 21978,
    "omical": 22545,
    "pled": 10137,
    "ĠTerran": 33486,
    "Ġleather": 11620,
    "odan": 45561,
    "Ġgrasped": 45569,
    "Ġboycot": 46878,
    "Ġsubclass": 47611,
    "*=-": 48069,
    "Ġexplor": 39180,
    "Ġdissidents": 49913,
    "iff": 733,
    "Ġsurv": 3343,
    "ĠMarshall": 13606,
    "icus": 24552,
    "Ġinciting": 47494,
    "ĠOverview": 28578,
    "ĠBlade": 11671,
    "ĠEarn": 22535,
    "Ġhypotheses": 35125,
    "Ġembargo": 38286,
    "liction": 41101,
    "Ġaptly": 47166,
    "Ġratt": 27263,
    "highest": 35323,
    "rought": 2909,
    "FactoryReloaded": 37631,
    "Ġusers": 2985,
    "aran": 19173,
    "ĠTS": 26136,
    "Mini": 39234,
    "ĠPAN": 40468,
    "ath": 776,
    "olo": 14057,
    "ĠEthereum": 20313,
    "ipers": 29288,
    "Ġfly": 6129,
    "Ġmore": 517,
    "ISC": 37719,
    "Ġneeding": 18139,
    "Econom": 28489,
    "ĠJoseph": 7212,
    "Jul": 16980,
    "ĠPotion": 34018,
    "Type": 6030,
    "ĠCorner": 26212,
    "uture": 1832,
    "Ġrigs": 45932,
    "Ġtwitter": 17044,
    "Ġnoon": 19613,
    "333": 20370,
    "Ġevidence": 2370,
    "osp": 2117,
    "Ġnicotine": 21856,
    "9999": 24214,
    "Ġtrucks": 13960,
    "ĠmL": 36226,
    "Ġinsight": 11281,
    "Ġantioxid": 28360,
    "ĠMilton": 30979,
    "Ġcriticism": 7734,
    "cers": 7999,
    "Ġparticle": 18758,
    "ĠRicky": 31668,
    "ĠNEXT": 39726,
    "Ġnuances": 42160,
    "print": 4798,
    "Ġstump": 42497,
    "ulla": 47972,
    "Ġutilities": 20081,
    "ĠParish": 35240,
    "Ġalternative": 5559,
    "ases": 1386,
    "Ġbail": 12274,
    "Ġresponses": 9109,
    "ĠVacc": 31749,
    "Ġheadset": 23492,
    "asses": 13978,
    "ĠRaspberry": 24244,
    "frey": 37425,
    "ĠFerr": 19130,
    "itures": 20686,
    "Decl": 37835,
    "41": 3901,
    "Ġmajors": 26353,
    "Ġbeat": 4405,
    "ĠKilling": 25536,
    "269": 26276,
    "why": 22850,
    "ama": 1689,
    "ars": 945,
    "ĠGat": 29074,
    "achel": 9636,
    "Ġplaced": 4624,
    "ĠReal": 6416,
    "Ġclown": 25573,
    "3000": 23924,
    "Ġhandc": 25188,
    "Ġsynonymous": 33271,
    "ĠSomalia": 23918,
    "ĠSheikh": 30843,
    "resist": 35119,
    "ĠFund": 7557,
    "Ġultimately": 6165,
    "ĠSophie": 35331,
    "ĠEcology": 39978,
    "Ġdownstairs": 34624,
    "ĠConnect": 8113,
    "abis": 8102,
    "Ġmanga": 15911,
    "ĠMonk": 28854,
    "Ġranking": 12759,
    "Ġproclaimed": 25546,
    "development": 31267,
    "ĠWarfare": 20745,
    "Ġgeared": 31394,
    "Ġchant": 33541,
    "Ġpint": 35245,
    "civil": 37636,
    "Ġissu": 25731,
    "ĠMcGu": 33902,
    "Ġslur": 40066,
    "radius": 42172,
    "Ġabnormal": 18801,
    "Ġetiquette": 49455,
    "ĠDe": 1024,
    "Ġincorporation": 43619,
    "hest": 3634,
    "ĠPhelps": 40587,
    "12": 1065,
    "ĠRoz": 41334,
    "ĠPlays": 38116,
    "Daily": 28545,
    "ĠGuan": 42305,
    "Ġ351": 44417,
    "Nar": 40059,
    "verett": 33395,
    "ciating": 46136,
    "AFP": 17449,
    "alla": 30315,
    "exp": 11201,
    "Ġpersonalized": 28949,
    "Ġtabl": 36148,
    "occupied": 28756,
    "ĠBarton": 32342,
    "Ġconsulting": 18158,
    "rium": 19172,
    "Ġborrower": 39740,
    "cliffe": 33783,
    "ĠCharges": 44620,
    "Unt": 35792,
    "Ġogre": 47656,
    "arity": 6806,
    "Ġdisadvant": 14560,
    "olithic": 30764,
    "ãĤ¼ãĤ¦ãĤ¹": 43361,
    "Ġsd": 45647,
    "Ġthereafter": 19547,
    "Ġshowers": 32290,
    "Ġactions": 4028,
    "ĠTurtle": 33137,
    "Ġpod": 24573,
    "ĠDoctors": 28274,
    "ĠAlright": 40967,
    "Ġ14": 1478,
    "raved": 28366,
    "ĠRecomm": 19237,
    "Ġdistilled": 41009,
    "Ġgovernance": 18848,
    "Ġlament": 23146,
    "Ġanarchism": 41661,
    "Ġmedi": 16957,
    "Ġgarments": 36097,
    "OO": 6684,
    "peror": 8723,
    "Ġgifted": 22527,
    "Ġfatig": 46291,
    "ĠLama": 36187,
    "ĠEconomics": 18963,
    "Ġeste": 43577,
    "Ġservers": 9597,
    "ĠResort": 28345,
    "ĠFlat": 21939,
    "Ġdies": 10564,
    "ships": 26313,
    "Ġeccentric": 29303,
    "Ġmerits": 21692,
    "ernand": 13023,
    "ĠCAD": 37292,
    "olon": 43645,
    "haw": 26615,
    "Ġundue": 38826,
    "Ġinterrupted": 19072,
    "imum": 2847,
    "Ġparents": 3397,
    "ĠHal": 11023,
    "ĠExtract": 29677,
    "Ġhorrend": 39910,
    "ava": 4170,
    "ãĥĨãĤ£": 44431,
    "ĠPremium": 17315,
    "Being": 18357,
    "wic": 22664,
    "Na": 26705,
    "ĠHay": 9075,
    "Ġpivotal": 28992,
    "Ġceramic": 37973,
    "ĠCoconut": 46943,
    "ĠCitizenship": 47002,
    "Ġperl": 48746,
    "Ġcafe": 26725,
    "ming": 2229,
    "Brother": 39461,
    "Ġparcels": 49796,
    "writing": 16502,
    "Ġans": 9093,
    "ĠCalcul": 27131,
    "Ġlosses": 9089,
    "Ġtram": 29957,
    "gui": 48317,
    "ĠSecretary": 4986,
    "Ġdescription": 6764,
    "Ġsupremacist": 31352,
    "Ġmission": 4365,
    "Ġrobust": 12373,
    "outheastern": 27873,
    "ĠIllustrated": 36000,
    "Ġappropriately": 20431,
    "Field": 15878,
    "et": 316,
    "ĠOpposition": 29560,
    "amn": 34684,
    "Resource": 26198,
    "prep": 46012,
    "ashing": 2140,
    "ĠHarmony": 35088,
    "ĠArchive": 20816,
    "ĠEducation": 7868,
    "ĠMyr": 29772,
    "Ġseem": 1283,
    "repl": 35666,
    "ĠKaplan": 37105,
    "fifth": 43556,
    "ross": 1214,
    "Ġreturn": 1441,
    "ptr": 20692,
    "ĠRobert": 5199,
    "Ġquotas": 38736,
    "ĠPatron": 43315,
    "Ġspeech": 4046,
    "Ġsetup": 9058,
    "cb": 21101,
    "Ġmedial": 48174,
    "Ġshading": 49065,
    "file": 7753,
    "Ġcontributor": 18920,
    "Ġjournal": 3989,
    "Ġham": 8891,
    "Ġrevis": 22124,
    "Ġchannels": 9619,
    "dy": 9892,
    "Ġow": 12334,
    "Mel": 21102,
    "Ġcloak": 24117,
    "Ġoutraged": 27697,
    "plot": 29487,
    "ĠOak": 9121,
    "ĠPath": 10644,
    "Ġwondering": 11263,
    "Ġmitochond": 25387,
    "Ġvolcan": 17516,
    "ĠConnor": 27599,
    "Ġlicenses": 16625,
    "olate": 27976,
    "ĠKarma": 32648,
    "Ġdepleted": 34069,
    "Ġrapt": 38404,
    "Ġsneaking": 41797,
    "Ġpickups": 46462,
    "raud": 22863,
    "ooked": 46288,
    "UR": 4261,
    "Ġcarniv": 41919,
    "ĠTi": 16953,
    "Ġrewarded": 20945,
    "arks": 5558,
    "aj": 1228,
    "Ġrace": 3234,
    "fun": 12543,
    "aughters": 13441,
    "Ġforgot": 16453,
    "ETH": 20702,
    "PLAY": 31519,
    "Ġinterested": 4609,
    "ĠKab": 28793,
    "agascar": 44309,
    "Ġafloat": 45759,
    "Nazi": 31343,
    "ĠOrigins": 24079,
    "Ġperpet": 8939,
    "Ġenlight": 19128,
    "heastern": 18160,
    "UF": 36820,
    "BW": 48802,
    "\\/": 11139,
    "Ġextraord": 9946,
    "Ġvisuals": 27329,
    "473": 37804,
    "[\"": 14692,
    "eree": 45316,
    "ĠCollider": 50253,
    "idents": 3231,
    "354": 32182,
    "UT": 3843,
    "ĠIV": 8363,
    "ĠPennsylvania": 9589,
    "rics": 10466,
    "Ġtrends": 11257,
    "ĠLORD": 35750,
    "Ġtakedown": 33341,
    "Ġreopen": 37173,
    "Ġ--------------------": 41436,
    "Ġscholar": 15606,
    "Ġclean": 3424,
    "Ġyield": 7800,
    "TION": 24131,
    "ĠDynam": 14970,
    "324": 33916,
    "ĠFreddie": 31658,
    "ĠRaleigh": 34520,
    "ĠBrowse": 44775,
    "Ġoccurring": 14963,
    "Ġnaked": 12105,
    "Want": 19633,
    "ĠLeaf": 14697,
    "ĠKath": 18341,
    "=\\\"": 17553,
    "hyde": 39175,
    "abre": 46241,
    "Ġrenders": 30111,
    "Ġactresses": 49798,
    "ĠLight": 4401,
    "Ġadmon": 37202,
    "ĠFix": 13268,
    "Ġaspir": 18808,
    "ĠRolling": 21567,
    "Ġsoc": 1307,
    "Ġmamm": 13418,
    "Ġib": 24283,
    "625": 26704,
    "ãĤĮ": 39258,
    "Ġrapport": 49498,
    "ulating": 8306,
    "lisher": 8191,
    "Ġuseless": 13894,
    "ornings": 28863,
    "43": 3559,
    "Ġweaknesses": 20256,
    "704": 32869,
    "Ġshenanigans": 48949,
    "ĠCoastal": 43513,
    "Ġactively": 10630,
    "ĠLTD": 42513,
    "Ġwand": 11569,
    "Direct": 13470,
    "former": 16354,
    "899": 44093,
    "ĠCooke": 46247,
    "iots": 16228,
    "Ġsucks": 22523,
    "Ġremembered": 12086,
    "sh": 1477,
    "reet": 2871,
    "ĠEngineer": 23164,
    "ĠMole": 25726,
    "ãĤ£": 16646,
    "ĠKnight": 6700,
    "Ġingredient": 18734,
    "otics": 23891,
    "Ġdiversion": 34851,
    "ĠRebels": 36069,
    "Ġgiveaway": 39015,
    "ibel": 43837,
    "crazy": 50112,
    "Ġcomputer": 3644,
    "ĠReb": 15652,
    "rived": 36207,
    "cession": 43914,
    "ĠHI": 36210,
    "Ġeval": 5418,
    "Ġalcoholism": 46526,
    "Ġidentifies": 21079,
    "Ġaft": 46088,
    "Twenty": 34096,
    "Ġperjury": 47816,
    "gren": 32762,
    "Ġacad": 5790,
    "ĠIntegration": 38410,
    "Ġthw": 41964,
    "Ġdevs": 41470,
    "ands": 1746,
    "Ġrepo": 29924,
    "Marginal": 36003,
    "Ġ1863": 47072,
    "ĠCooking": 33774,
    "ĠMaw": 46598,
    "ĠArc": 10173,
    "ĠDin": 23448,
    "venient": 48109,
    "ĠDomin": 11817,
    "Ġmodesty": 48740,
    "ĠTHIS": 12680,
    "ĠBarbie": 46829,
    "py": 9078,
    "Ġfast": 3049,
    "Ġrobotic": 25810,
    "Ġenhancement": 28554,
    "status": 13376,
    "Ġaccused": 5371,
    "Ġaccumulation": 24106,
    "central": 31463,
    "Ġconceived": 21581,
    "ĠMalta": 35206,
    "ĠBurr": 38173,
    "Ġpag": 42208,
    "sys": 17597,
    "ĠNeural": 47986,
    "prim": 19795,
    "ĠFe": 5452,
    "iner": 7274,
    "ĠPeru": 25768,
    "ĠIsabel": 41838,
    "Ġlaying": 16299,
    "ĠJOHN": 39263,
    "ogen": 6644,
    "Ġyoungest": 18887,
    "Ġscrolling": 28659,
    "ĠKov": 43326,
    "itute": 3678,
    "TV": 6849,
    "rier": 5277,
    "ĠJakarta": 49251,
    "efully": 7549,
    "Parser": 46677,
    "Ġcopied": 18984,
    "ĠRecorded": 50096,
    "ĠEvidence": 21259,
    "Ġdoes": 857,
    "ĠTactical": 26984,
    "Ġwal": 6514,
    "ĠMountains": 21124,
    "230": 19214,
    "Ġbalance": 5236,
    "Ġaudio": 6597,
    "Spl": 26568,
    "Ġresurgence": 39330,
    "Ġcomma": 39650,
    "ĠSubmission": 42641,
    "Ġconfounding": 43849,
    "Ġrecomb": 44759,
    "ipp": 3974,
    "Ġke": 885,
    "iol": 1669,
    "ĠDeadpool": 40448,
    "Ġglobalization": 39155,
    "ĠRyzen": 45042,
    "Ġwork": 670,
    "Ġmade": 925,
    "Ġtear": 11626,
    "Ġ55": 5996,
    "ĠEar": 2905,
    "Ġrescued": 19868,
    "ĠChocolate": 24777,
    "gae": 25002,
    "meaning": 24815,
    "Ġsearch": 2989,
    "Ġhurry": 23290,
    "location": 24886,
    "Specific": 32419,
    "ĠAston": 33644,
    "Ġworkplaces": 47364,
    "Ġtraverse": 38138,
    "usual": 37850,
    "Ġ433": 47407,
    "ĠHornets": 38602,
    "Ġoperator": 10088,
    "system": 10057,
    "©¶æ": 47490,
    "Ġgut": 12500,
    "ĠKom": 32364,
    "binary": 39491,
    "ĠLIB": 45651,
    "ana": 2271,
    "isf": 4468,
    "Ġyours": 12431,
    "US": 2937,
    "Ġpic": 8301,
    "Ġregion": 3814,
    "Ġ700": 13037,
    "Ġoffseason": 16349,
    "Inter": 9492,
    "ĠTour": 9852,
    "Ġweapons": 3777,
    "Ġpal": 6340,
    "Ġvalidation": 21201,
    "Ġlisting": 13487,
    "ĠCorey": 24154,
    "ĠKeeper": 26335,
    "revolution": 32243,
    "ĠRapp": 36962,
    "Ġperce": 36974,
    "Young": 20917,
    "ĠDeputy": 15110,
    "Assad": 23622,
    "Ġslices": 24314,
    "ĠLeviathan": 32223,
    "Ġperiods": 9574,
    "Ġdownright": 31464,
    "Marco": 37179,
    "ĠDropbox": 38930,
    "ĠDumbledore": 27442,
    "ĠIter": 40806,
    "sov": 47272,
    ",,,,,,,,": 47682,
    "Ġfarmer": 18739,
    "Ġobjectionable": 48540,
    "Ġvicinity": 25980,
    "mop": 35244,
    "ĠHearing": 34663,
    "Call": 14134,
    "through": 9579,
    "ĠYemeni": 38534,
    "Ġmuzzle": 31746,
    "ĠPoll": 12868,
    "Ġfeminine": 23564,
    "ICH": 20739,
    "Ġvile": 34942,
    "creen": 32060,
    "ĠPeel": 49266,
    "powder": 45855,
    "ĠOb": 1835,
    "ĠGut": 27549,
    "ĠKling": 28638,
    "DAQ": 46640,
    "Ġdisrupt": 10114,
    "FR": 10913,
    "Ġposit": 46436,
    "Ġrenamed": 25121,
    "orget": 28122,
    "hr": 11840,
    "Ġcompete": 9320,
    "Ġdiscretionary": 41314,
    "Ġnas": 25221,
    "ja": 6592,
    "Ġeffectively": 6840,
    "skirts": 28383,
    "excluding": 42218,
    "but": 4360,
    "anova": 40993,
    "Ġpunish": 6878,
    "Ġdeadlines": 36773,
    "ĠSHARES": 44806,
    "Ġbidder": 44848,
    "react": 45018,
    "Ġcorporations": 10225,
    "ĠCooperative": 43457,
    "Ġmelodies": 47077,
    "ĠCNS": 48935,
    "D": 35,
    "Ġchuck": 20539,
    "Ġhasht": 20267,
    "ä½ľ": 43291,
    "Ġdoub": 3385,
    "pees": 42623,
    "ĠBid": 43484,
    "Ġsynchronized": 47192,
    "myra": 49216,
    "ĠJav": 49247,
    "Ġbooks": 3835,
    "ĠSabha": 41941,
    "ĠIndependent": 13362,
    "ĠDIS": 13954,
    "arenthood": 17117,
    "Ġamazingly": 32513,
    "ĠAudrey": 48498,
    "inity": 6269,
    "scill": 22360,
    "cester": 33187,
    "ĠBuilder": 35869,
    "Ġker": 41927,
    "ĠObjective": 37092,
    "Ġawarded": 11343,
    "Ġinvestigating": 10240,
    "Ġunint": 17679,
    "ĠBengals": 24037,
    "ĠFiona": 42207,
    "Ġconsidered": 3177,
    "Ġofficially": 8720,
    "Introdu": 15005,
    "036": 48597,
    "ĠSang": 30043,
    "Music": 22648,
    "ĠICC": 32300,
    "ussions": 21585,
    "ouls": 42033,
    "Ġphosphate": 46926,
    "page": 7700,
    "arate": 30748,
    "Ġsorts": 10524,
    "Ġforest": 8222,
    "shaw": 32832,
    "ĠBurg": 21435,
    "ĠCathedral": 32536,
    "ĠWax": 42656,
    "Ġwetlands": 49297,
    "ĠSiem": 45196,
    "ĠTata": 49963,
    "Qaeda": 19058,
    "asley": 30705,
    "Ġmel": 7758,
    "achi": 14299,
    "Probably": 34784,
    "1111": 26259,
    "ĠCAS": 35106,
    "Ġcalam": 35765,
    "ĠPetra": 37285,
    "Ġassay": 40575,
    "Ġcirculate": 49306,
    "ĠToggle": 34098,
    "Ġsurprising": 6452,
    "ĠKill": 12265,
    "ĠSoon": 15894,
    "Ġsentiment": 15598,
    "ĠInspect": 20904,
    "Ġmeats": 32219,
    "ĠCour": 2734,
    "ĠFlam": 33104,
    "ĠKabul": 34753,
    "Ġshielding": 43539,
    "today": 40838,
    "Ġnecks": 44184,
    "ĠHound": 44900,
    "Sullivan": 47572,
    "Ġoutlined": 16493,
    "Ġboost": 5750,
    "ĠLoft": 49416,
    "ĠHog": 22411,
    "ĠAkron": 45868,
    "Ġpopulace": 39003,
    "Ġcatch": 4929,
    "ĠFINAL": 25261,
    "ĠSimulator": 13942,
    "irst": 667,
    "Ġprivately": 17092,
    "Ġrepeat": 9585,
    "3": 18,
    "oft": 11205,
    "Ġburns": 20246,
    "Ġswept": 17676,
    "Ġtours": 21284,
    "Ġpassionate": 15347,
    "ĠFu": 13333,
    "Ġremarked": 24998,
    "Pool": 27201,
    "ĠPG": 23842,
    "Ġ1896": 46723,
    "Ġthrust": 14613,
    "Bas": 15522,
    "ĠPatterns": 47020,
    "cture": 48715,
    "earcher": 50194,
    "Ġtarn": 40851,
    "OSH": 45704,
    "Ġjo": 2525,
    "Ġsatell": 8983,
    "ĠGol": 26849,
    "Ġracked": 41503,
    "Ġbeliever": 29546,
    "ĠIcelandic": 41959,
    "ĠCorpus": 44874,
    "punk": 30354,
    "Ġsummar": 15676,
    "Ġor": 393,
    "ĠCarbuncle": 35818,
    "ĠStanley": 14167,
    "Ġhighlighting": 21292,
    "éļ": 49694,
    "Ġdepos": 12304,
    "Ġoutrage": 11616,
    "ĠFell": 21710,
    "oscope": 40326,
    "ĠThatcher": 31706,
    "Ġflourishing": 46240,
    "yu": 24767,
    "ĠDesigns": 49282,
    "Ġapologized": 22893,
    "ĠTL": 24811,
    "ĠCame": 32653,
    "Ġnurture": 43414,
    "another": 29214,
    "ĠSham": 27957,
    "ĠBarkley": 45408,
    "Ġstreaks": 48356,
    "Hung": 39505,
    "Ġdriver": 4639,
    "Ġcrazy": 7165,
    "Ġpause": 14985,
    "Ġconnectivity": 19843,
    "Ġdenying": 17086,
    "Ġrestoring": 25646,
    "Ġworkaround": 46513,
    "ĠMPG": 48652,
    "Ġ370": 28687,
    "DF": 8068,
    "tab": 8658,
    "Ġsequels": 45176,
    "ĠSay": 13816,
    "208": 21315,
    "Ġweekday": 28269,
    "ĠLaz": 22807,
    "Synopsis": 49771,
    "unk": 2954,
    "Ġpurchaser": 39122,
    "Ġannihil": 36572,
    "ĠSeverus": 41343,
    "ĠAuthor": 6434,
    "Ġstupidity": 37775,
    "ĠJerry": 13075,
    "export": 39344,
    "Ġconsultancy": 47827,
    "Ġconduct": 3189,
    "aha": 12236,
    "ĠExpand": 49368,
    "Ġbankers": 25091,
    "ĠGig": 19525,
    "391": 37710,
    "ĠZy": 40905,
    "Ġlic": 3476,
    "ulates": 15968,
    "mean": 32604,
    "ĠShaman": 34805,
    "Ġscheduling": 26925,
    "Ġregions": 7652,
    "rax": 32040,
    "Sharp": 44336,
    "ĠNord": 18687,
    "Ġowl": 39610,
    "Ġeffortlessly": 42241,
    "ARM": 33456,
    ")</": 36475,
    "Ġprevent": 2948,
    "Ġoption": 3038,
    "neg": 12480,
    "Ġcopies": 9088,
    "Ġevidently": 27450,
    "ĠTat": 29070,
    "ĠBundesliga": 44323,
    "Ġ357": 45210,
    "ĠHoms": 47778,
    "ĠCedar": 36758,
    "IRD": 46833,
    "PORT": 15490,
    "Ġlaws": 3657,
    "esy": 9259,
    "ĠBom": 20403,
    "ĠLaunch": 21225,
    "ĠDuck": 21867,
    "Ġdescribes": 8477,
    "Cook": 28937,
    "Ġissuing": 19089,
    "Ġresear": 4027,
    "Much": 20045,
    "ĠDW": 29652,
    "Ġvoters": 4446,
    "Ġplural": 22801,
    "Ġisol": 7010,
    "321": 36453,
    "Hide": 38518,
    "Jimmy": 40335,
    "ĠGoat": 40423,
    "ĠLighting": 43150,
    "Board": 29828,
    "Soc": 37949,
    "mut": 21973,
    "alpha": 26591,
    "Ġscholars": 9123,
    "aby": 3930,
    "ĠMcL": 18365,
    "earance": 23435,
    "Rub": 21312,
    "Ġcliffs": 41724,
    "ĠParkinson": 31618,
    "Ġattends": 32743,
    "acc": 4134,
    "Ġhomeland": 23184,
    "Ġballots": 20103,
    "usion": 4241,
    "Ġsloppy": 35862,
    "Instruct": 43993,
    "Ġrenovations": 44481,
    "Ġtrust": 3774,
    "ĠGuardian": 8283,
    "Ġstabilized": 44945,
    "Ġnightclub": 26617,
    "Ġmyster": 6141,
    "Ġblasted": 26044,
    "Ġcyl": 17327,
    "Ġ[...]": 26894,
    "ape": 1758,
    "ĠVoltage": 45444,
    "emic": 5314,
    "Ġtriple": 15055,
    "ĠGlass": 12158,
    "238": 23721,
    "Ġphysiology": 38033,
    "ĠAlphabet": 45695,
    "Ġdeficit": 11807,
    "Ġ98": 9661,
    "Ġje": 11223,
    "Does": 13921,
    "ulu": 15712,
    "minded": 14543,
    "ĠSwe": 19372,
    "Ġgraphic": 13028,
    "ĠKod": 32701,
    "jam": 39159,
    "Ġtack": 6331,
    "walker": 20783,
    "Ġvoting": 6709,
    "Ġpear": 25286,
    "sever": 28116,
    "Kenn": 39324,
    "ĠShield": 10022,
    "ļ": 248,
    "Ġteamed": 31230,
    "ĠTsarnaev": 43760,
    "Ġdensity": 12109,
    "rown": 2053,
    "ilo": 18526,
    "ĠTransgender": 44002,
    "washed": 45462,
    "ĠMayor": 10106,
    "Chicken": 45565,
    "Ġchronological": 45946,
    "Enhanced": 49026,
    "Ġfrontman": 49250,
    ")].": 25295,
    "Ġengages": 32902,
    "ptives": 43903,
    "Ġrandom": 4738,
    "Ġplease": 3387,
    "Ġwheels": 13666,
    "Ġpitchers": 25259,
    "ĠSick": 32181,
    "Ġethos": 39676,
    "street": 25662,
    "Ġmerger": 24589,
    "Ġcov": 39849,
    "Ġculmination": 41089,
    "ĠConsulting": 41005,
    "Ġindeed": 5600,
    "ĠIr": 5686,
    "ĠIllum": 39256,
    "Ġledge": 35614,
    "aunts": 43981,
    "steel": 44822,
    "ĠSchwar": 29726,
    "ĠPayPal": 22525,
    "Ġpaints": 32281,
    "Ġpim": 49319,
    "Ġpassively": 49947,
    "Sund": 20602,
    "Ġraise": 5298,
    "enza": 23674,
    "Ġfails": 10143,
    "ĠDise": 14865,
    "opia": 24464,
    "Ġvoc": 12776,
    "Ġgrad": 3915,
    "Ġenvironment": 2858,
    "Ġinsulin": 14588,
    "Ġcontrolled": 6856,
    "Ġmonsters": 10963,
    ".......": 25780,
    "Ġribbon": 29092,
    "97": 5607,
    "ibilities": 7992,
    "Moving": 33622,
    "-.": 34507,
    "Ġcorpus": 35789,
    "Ġissued": 4884,
    "ĠJeep": 35801,
    "ĠDuke": 11083,
    "EA": 16412,
    "Ġinco": 44237,
    "esses": 44667,
    "Ġshare": 2648,
    "Ġroughly": 7323,
    "Ġbean": 26394,
    "Ġlover": 18854,
    "Ġresidents": 5085,
    "Ġtame": 37812,
    "ĠNotice": 17641,
    "Ġsund": 37437,
    "ĠMidnight": 27960,
    "ita": 5350,
    "dayName": 45392,
    "Ġstocking": 49774,
    "Ġscrolls": 32138,
    "Ġprominent": 9208,
    "rique": 33865,
    "ĠSears": 36895,
    "ĠIllusion": 37697,
    "Ġconvictions": 19131,
    "Ġreflection": 14580,
    "Ġvarying": 15874,
    "Ġgiveaways": 50020,
    "ĠCertain": 16272,
    "Single": 28008,
    "ĠFounder": 30153,
    "bb": 11848,
    "three": 15542,
    "Ġhors": 45334,
    "Looking": 15784,
    "OWER": 36048,
    "Ct": 33707,
    "ĠWriters": 37732,
    "ĠDV": 29854,
    "Ġtracks": 8339,
    "Ġfeminism": 19394,
    "Ġlivest": 20532,
    "ĠPles": 48468,
    "Jan": 12128,
    "educ": 18123,
    "Ġspecifics": 23514,
    "cerpt": 17040,
    "Ġanywhere": 6609,
    "quez": 22281,
    "174": 22985,
    "ĠSeed": 23262,
    "Ġ1973": 15674,
    "282": 32568,
    "Ġapplauded": 38911,
    "Ġroadmap": 40332,
    "Ġrestraints": 45369,
    "Ġdeterioration": 38495,
    "ĠEmerson": 41886,
    "erry": 6996,
    "Ġexcerpts": 39146,
    "Ġ\\\\": 26867,
    "Ġplaster": 46376,
    "Ġcommuter": 40718,
    "Ġcollaborations": 48421,
    "sites": 49315,
    "Ġdeck": 6203,
    "Ġswallow": 26633,
    "eline": 4470,
    "gl": 4743,
    "Ġdisregard": 25070,
    "pard": 26037,
    "oy": 726,
    "Ġlegend": 8177,
    "Ġpollen": 40362,
    "Ġatheist": 25222,
    "rot": 10599,
    "HD": 10227,
    "Ġtigers": 43114,
    "ĠDawn": 12258,
    "enum": 44709,
    "ĠUnfortunately": 8989,
    "Tr": 2898,
    "Ġmeaningful": 11570,
    "Ġpowder": 11913,
    "ĠBad": 7772,
    "ĠNuggets": 33978,
    "506": 35638,
    "utan": 37878,
    "Ġlavish": 38957,
    "ĠFarmers": 34982,
    "Ġdiscredited": 41882,
    "posium": 35864,
    "530": 38612,
    "Ġscheduled": 7530,
    "Ġcalculated": 10488,
    "Ġinability": 16612,
    "Ġep": 2462,
    "xual": 5541,
    "emen": 8952,
    "gom": 19120,
    "xt": 742,
    "387": 32220,
    "¦": 99,
    "letter": 9291,
    "Ġignores": 24245,
    "ĠFact": 19020,
    "bil": 33473,
    "Ġquadru": 40977,
    "Ġdiscrim": 6534,
    "Ġfacilitates": 42699,
    "ĠUL": 44475,
    "Ġdeciding": 14615,
    "Ġjeans": 21029,
    "ĠVictorian": 24569,
    "ĠMiy": 29464,
    "Ġconce": 8571,
    "Ġmentors": 44691,
    "ĠRowe": 44842,
    "Coin": 24387,
    "imize": 48439,
    "ĠFeatured": 38188,
    "ĠWhile": 2893,
    "Ġbro": 1379,
    "ĠSessions": 15184,
    "ĠOpening": 25522,
    "tem": 11498,
    "ĠMarks": 27366,
    "Ġware": 16202,
    "IFIED": 28343,
    "Mc": 9742,
    "rer": 11751,
    "Ġcompromises": 38853,
    "leted": 33342,
    "ĠFrancis": 12155,
    "Ġcentered": 19254,
    "oine": 42722,
    "Ġperformed": 6157,
    "Cre": 12443,
    "Ġlobby": 10866,
    "Ġbought": 5839,
    "ĠTAM": 33112,
    "oni": 14651,
    "than": 14813,
    "ĠTory": 19037,
    "obe": 5910,
    "Ġblogs": 19118,
    "ĠNep": 15310,
    "quished": 39737,
    "wcsstore": 12781,
    "ĠJed": 39952,
    "Ġsurgical": 21998,
    "olding": 33266,
    "Ġshallow": 19337,
    "mes": 6880,
    "thouse": 23931,
    "indust": 23213,
    "querque": 36119,
    "Sol": 36949,
    "ĠBarnett": 38174,
    "ĠMike": 4995,
    "Ġparsed": 44267,
    "ĠCLA": 47666,
    "Ġsubversive": 49685,
    "Ġtheoretically": 26787,
    "1979": 33581,
    "Ġhello": 23748,
    "Ġprobing": 41034,
    "cled": 20095,
    "ĠMov": 44795,
    "Ġdetective": 20775,
    "ei": 20295,
    ".#": 32535,
    "Ġinvestigation": 3645,
    "Ġbasically": 6209,
    "ĠCoverage": 33998,
    "ĠGerman": 2679,
    "423": 43356,
    "Ġjourney": 7002,
    "Orderable": 39655,
    "actions": 4658,
    "ISA": 22312,
    "irs": 17062,
    "ĠEaster": 20111,
    "Ġsab": 17463,
    "ĠGam": 14014,
    "Ġhistorian": 18026,
    "ĠLindsay": 33127,
    "ĠParts": 22349,
    "ĠCorp": 11421,
    "Ġmathematic": 33161,
    "ĠOh": 3966,
    "ĠVER": 33310,
    "inian": 24605,
    "hen": 831,
    "MG": 20474,
    "Ġchampagne": 37392,
    "Ġstandalone": 27669,
    "Photos": 21197,
    "Henry": 32476,
    "Ġleases": 38522,
    "azy": 12582,
    "Ġtabs": 22524,
    "Ġsanctuary": 24050,
    "erness": 17447,
    "ĠHein": 26431,
    "Ġreconsider": 26540,
    "realDonaldTrump": 28024,
    "clad": 29853,
    "iceps": 41663,
    "roman": 47119,
    "master": 9866,
    "wing": 5469,
    "ĠMAD": 45878,
    "etooth": 16271,
    "ĠLength": 22313,
    "Ġmystical": 29746,
    "pointers": 47809,
    "Ġplans": 3352,
    "engineering": 40321,
    "Ġbetrayal": 29355,
    "Paris": 40313,
    "isma": 38017,
    "Ġextinct": 28881,
    "gements": 43547,
    "ĠMistress": 38499,
    "ĠTend": 48664,
    "Ġobj": 26181,
    "ĠRost": 48306,
    "ĠâĨĴ": 15168,
    "Ġpurportedly": 40891,
    "ĠChrys": 27856,
    "Ġimplication": 26863,
    "ĠArs": 24230,
    "ĠPharma": 41845,
    "Ġinadequate": 20577,
    "ashed": 5263,
    "command": 21812,
    "ĠRefer": 33973,
    "Ġsw": 1509,
    "ĠBuffer": 47017,
    "HHHH": 41100,
    "ĠSonic": 18426,
    "Ġmer": 4017,
    "nie": 11952,
    "alloc": 32332,
    "1964": 46477,
    "Ġlum": 46390,
    "Ġdemons": 17708,
    "Texas": 21607,
    "ĠDecker": 47170,
    "Ġdetermination": 12123,
    "option": 18076,
    "athlon": 50236,
    "rait": 12907,
    "Ġattendant": 31277,
    "Ġsou": 24049,
    "ĠJosÃ©": 36997,
    "Ġsober": 24281,
    "ĠKosovo": 37445,
    "ĠMAS": 32337,
    "Ġcoastline": 43415,
    "Note": 6425,
    "Ġindicating": 12739,
    "ĠAdvice": 42708,
    "Chip": 49985,
    "Ġlane": 11193,
    "anni": 31296,
    "TY": 9936,
    "ĠMunich": 22418,
    "Ġprovince": 8473,
    "olia": 22703,
    "ĠNigerian": 36430,
    "ĠTreasure": 20215,
    "Ġivory": 32630,
    "ĠHuge": 35225,
    "Ġspar": 37331,
    "ĠElev": 37881,
    "owl": 4883,
    "Ġ______": 44435,
    "ĠUm": 21039,
    "Ġsol": 1540,
    "Ġcontradictory": 29096,
    "Fest": 45139,
    "uncle": 29942,
    "Ġarray": 7177,
    "raft": 1617,
    "Ġunch": 16258,
    "ĠPublishing": 23499,
    "ĠGer": 13573,
    "rology": 31142,
    "ĠNewtown": 37261,
    "Ġmanipulate": 18510,
    "Ġhopeful": 17836,
    "Ġsupported": 4855,
    "flush": 25925,
    "Ġwheelchair": 27181,
    "Ġsan": 5336,
    "inky": 29246,
    "ĠSemi": 35525,
    "ARP": 36035,
    "cosystem": 12541,
    "ĠRachel": 15984,
    "Sep": 19117,
    "Australian": 38036,
    "ummer": 31647,
    "Ġeliminated": 15254,
    "install": 17350,
    "16": 1433,
    "Ġquantum": 14821,
    "adian": 18425,
    "ĠÐ": 12466,
    "unal": 18835,
    "509": 29022,
    "ĠðŁĻĤ": 32485,
    "Ġsexes": 32487,
    "Ġtales": 19490,
    "Ġsoared": 35292,
    "pure": 37424,
    "edes": 37507,
    "Ġdoubted": 37104,
    "intosh": 37638,
    "Ġ371": 47343,
    "ĠGraveyard": 45490,
    "amina": 18891,
    "Ġraspberry": 38973,
    "Police": 9039,
    "ĠU": 471,
    "orgetown": 29085,
    "Ġdungeon": 18974,
    "Handle": 37508,
    "Ġflattering": 48259,
    "ATIONAL": 29912,
    "learn": 35720,
    "Ġcandy": 18550,
    "©": 102,
    "Interstitial": 29447,
    "Ġcannabin": 30716,
    "Ġfreshwater": 40941,
    "rome": 5998,
    "Ġ214": 28277,
    "Ġparticularly": 3573,
    "Ġhoping": 7725,
    "Ġcarve": 36717,
    "allows": 47205,
    "itized": 36951,
    "Ġinnov": 6237,
    "ĠCup": 5454,
    "ĠAd": 1215,
    "accept": 13635,
    "Ġ304": 31672,
    "Ġ~": 5299,
    "ĠHart": 11345,
    "Ġplasma": 16074,
    "ĠAth": 13548,
    "ains": 1299,
    "world": 6894,
    "uda": 15339,
    "Ġseam": 15787,
    "Liber": 31199,
    "ĠCertification": 40609,
    "rew": 1809,
    "Ġdwell": 14046,
    "atial": 34961,
    "having": 40965,
    "Ġprefer": 4702,
    "ĠCensus": 20962,
    "missions": 8481,
    "Ġsmoker": 41644,
    "ĠDrops": 41692,
    "ĠKarn": 31625,
    "ĠEarthquake": 45591,
    "ĠMillennials": 42828,
    "ĠPAGE": 48488,
    "Ġdisapprove": 48866,
    "aples": 28624,
    "Ġsprang": 43908,
    "gru": 48929,
    "atus": 7240,
    "Ġhydraulic": 34797,
    "Ġpenetrating": 41456,
    "Ġrecursive": 45115,
    "ĠFaces": 48463,
    "ĠStalin": 17482,
    "ACC": 26861,
    "2019": 23344,
    "Ġprinter": 20632,
    "ĠFeinstein": 34861,
    "Ukraine": 44814,
    "Ġswelling": 29844,
    "ĠKore": 3374,
    "Meta": 48526,
    "Ġsneak": 20528,
    "=/": 33223,
    "steps": 20214,
    "ĠHorn": 13549,
    "Ġ1960": 9507,
    "Ġstranger": 16195,
    "Ġsequence": 8379,
    "ĠMonitoring": 37484,
    "ano": 5733,
    "ĠScheme": 32448,
    "ĠPhD": 16394,
    "United": 17013,
    "Ġpussy": 18185,
    "Ġconting": 17982,
    "Ġov": 19643,
    "Cour": 25877,
    "ĠWong": 27247,
    "Ġwastewater": 42073,
    "Ġsuppressing": 41895,
    "ĠGrimm": 27145,
    "Ġmigrated": 40227,
    "ĠJeanne": 48202,
    "emies": 5090,
    "ĠExperts": 36095,
    "Ġtrusted": 13467,
    "ĠIronically": 37731,
    "Tal": 31466,
    "Ġmagnesium": 33525,
    "Ġpracticable": 44791,
    "Ġrestitution": 44862,
    "ĠTotem": 47469,
    "ologne": 30520,
    "ular": 934,
    "Ġcig": 8594,
    "Ġoverlooking": 34603,
    "Terror": 40194,
    "Ġnegligent": 42837,
    "Ġspecific": 2176,
    "Ġcontexts": 26307,
    "ãĤ±": 41658,
    "Ġpurchasing": 14080,
    "ĠProtocol": 20497,
    "ĠVaughan": 47451,
    "ears": 4127,
    "iqueness": 46764,
    "Ġcountering": 50043,
    "Ġpatient": 5827,
    "Ġreluct": 12869,
    "free": 5787,
    "Trigger": 48344,
    "iatures": 42711,
    "attled": 43535,
    "»": 119,
    "Ġlest": 27380,
    "ĠEquipment": 22412,
    "sha": 26270,
    "Ġmarginal": 14461,
    "Ġ5": 642,
    "severe": 43070,
    "Ġillustrious": 47887,
    "SC": 6173,
    "Ġholiday": 9912,
    "Ġsuburban": 20154,
    "Ġrival": 8976,
    "Ġending": 7464,
    "oland": 23573,
    "Ġgeographical": 27465,
    "ĠSheffield": 33496,
    "ĠMiller": 7920,
    "ĠDash": 16189,
    "ĠConfig": 17056,
    "Ġtrademarks": 27346,
    "Ġprovinces": 17812,
    "Ġbrightly": 35254,
    "Đ": 204,
    "rious": 32527,
    "\"],": 33116,
    "Search": 18243,
    "Ġvulnerabilities": 23805,
    "Ġpent": 28145,
    "Modern": 31439,
    "Ġwakes": 34267,
    "Ġlimited": 3614,
    "Ġscientifically": 32627,
    "negative": 31591,
    "uns": 13271,
    "Ġreprim": 41929,
    "Ġconsultations": 42052,
    "ultimate": 44818,
    "########": 7804,
    "Ġequ": 1602,
    "oming": 3383,
    "Ġnewly": 8308,
    "Ġgeometry": 22939,
    "Ġcylinder": 24911,
    "Ġjointly": 26913,
    "Ġprotein": 7532,
    "ĠKaz": 16385,
    "optional": 25968,
    "Ġhorrifying": 31906,
    "ĠPatch": 17106,
    "ishes": 5614,
    "Ġaspects": 7612,
    "ĠHalifax": 34438,
    "Ġgarner": 34679,
    "ĠGawker": 36528,
    "Ġluxurious": 35985,
    "Command": 21575,
    "ĠYanuk": 37068,
    "aints": 6003,
    "hma": 21720,
    "pletion": 24547,
    "ĠMayhem": 35450,
    "ibrarian": 35808,
    "Flags": 40053,
    "PokÃ©": 41386,
    "Ġgoaltender": 44113,
    "ĠIde": 16714,
    "ĠBlumenthal": 44888,
    "ĠStranger": 29683,
    "shirt": 15600,
    "Ġmot": 2369,
    "Ġmultiple": 3294,
    "osph": 14222,
    "resident": 8154,
    "Ġbadge": 23009,
    "Ġpsychology": 15119,
    "ĠiTunes": 4830,
    "ĠControls": 36357,
    "Ġcannons": 37577,
    "Ġview": 1570,
    "Ġpops": 26384,
    "Ġ530": 40585,
    "hole": 13207,
    "Ġmorphine": 43948,
    "pmwiki": 45321,
    "\"[": 17912,
    "Ġsequest": 46314,
    "iston": 36363,
    "Ġgo": 467,
    "haul": 15194,
    "soc": 35634,
    "Vote": 37394,
    "Ġ1986": 12113,
    "MO": 11770,
    ".),": 12179,
    "ĠKY": 33668,
    "ĠIb": 21089,
    "Ġgenders": 38054,
    "bender": 45666,
    "Ġscientist": 11444,
    "Ġfacility": 6841,
    "ĠCatalyst": 48238,
    "ĠApple": 4196,
    "Ġreconc": 19331,
    "uber": 18478,
    "ĠGoddess": 9488,
    "Ġhopping": 47153,
    "Ġblonde": 21541,
    "ĠRainbow": 19909,
    "Ġtrophy": 16383,
    "termin": 23705,
    "Ġironically": 32532,
    "lands": 4447,
    "American": 7437,
    "rich": 7527,
    "Ġbob": 29202,
    "geant": 30205,
    "Ġsketches": 34035,
    "Ġperpetrators": 25185,
    "ĠSounds": 27107,
    "ĠInfo": 14151,
    "Ġexpand": 4292,
    "Ġunused": 21958,
    "ĠAdv": 8007,
    "itative": 12464,
    "established": 27718,
    "ĠMoves": 38213,
    "ĠPatrick": 9925,
    "bash": 41757,
    "Ġmedication": 14103,
    "Ġlucid": 45464,
    "ocado": 33441,
    "ĠSouthampton": 30035,
    "Ġroam": 35563,
    "ĠHedge": 41078,
    "oras": 41043,
    "Ġrecognise": 21817,
    "ĠColomb": 16872,
    "known": 4002,
    "ĠStrateg": 17611,
    "ÃŃs": 41200,
    "Ġmun": 29856,
    "Ġparticulars": 45596,
    "b": 65,
    "Arsenal": 46230,
    "ICAN": 42710,
    "monton": 19729,
    "2000": 11024,
    "Ġ);": 5619,
    "Tyler": 46807,
    "ilot": 23439,
    "ĠObs": 11086,
    "ĠAtkinson": 49042,
    "Ġchild": 1200,
    "take": 20657,
    "Ġorphan": 26051,
    "VERS": 28884,
    "Ġnoteworthy": 30902,
    "Ġubiqu": 23861,
    "ĠSaint": 9281,
    "660": 39885,
    "anmar": 21708,
    "Ġrichness": 46792,
    "ĠWatergate": 42128,
    "Among": 14311,
    "Ġdefinition": 6770,
    "ĠSi": 15638,
    "ĠNad": 21877,
    "ĠImam": 38386,
    "mith": 22947,
    "nav": 28341,
    "ĠJ": 449,
    "ilic": 41896,
    "Ġballpark": 40598,
    "ports": 3742,
    "Ġunic": 28000,
    "ĠHelmet": 35900,
    "bet": 11181,
    "Ġdestroying": 13897,
    "olics": 19615,
    "Ġthou": 14210,
    "ĠCornel": 48214,
    "ĠBall": 6932,
    "Ġ1000": 8576,
    "eless": 5321,
    "ĠDial": 21269,
    "president": 22540,
    "jay": 33708,
    "ĠCliff": 23501,
    "Applic": 33583,
    "Ġninja": 37049,
    "Studies": 45833,
    "=#": 46249,
    "584": 46352,
    "load": 2220,
    "Ġincident": 4519,
    "Ġhouse": 2156,
    "April": 16784,
    "exec": 18558,
    "ĠFletcher": 31942,
    "KER": 42839,
    "ĠPetro": 36863,
    "ĠJersey": 8221,
    "Ġworsened": 44838,
    "Ġindoor": 22639,
    "pro": 1676,
    "RNA": 27204,
    "ĠComfort": 45769,
    "ĠUbuntu": 14949,
    "regor": 32288,
    "motion": 38714,
    "idepress": 25895,
    "zman": 32054,
    "ĠReyes": 40599,
    "Ġwalks": 11114,
    "Thirty": 38856,
    "Jen": 44875,
    "Ġtang": 13875,
    "ĠSW": 12672,
    "lishes": 19724,
    "ĠNearly": 21233,
    "azeera": 28535,
    "ĠCrimson": 18722,
    "ĠRoma": 29600,
    "rylic": 34554,
    "Ġdemonstr": 4110,
    "Ġsole": 6195,
    "Ġextrem": 8963,
    "Ġnull": 9242,
    "Ġlightly": 15376,
    "sense": 33819,
    "âĦ¢:": 41333,
    "rett": 11489,
    "ĠSNP": 25632,
    "ĠDAR": 41649,
    "ĠLoad": 8778,
    "Ġ273": 38549,
    "ounding": 9969,
    "Ġestab": 2803,
    "ibrary": 4115,
    "ĠNikon": 31356,
    "ĠAnniversary": 21967,
    "ĠAless": 47319,
    "Coming": 30804,
    "stall": 32989,
    "ension": 3004,
    "language": 16129,
    "Ġeldest": 34331,
    "Ġchall": 2532,
    "ameless": 39942,
    "2012": 6999,
    "Sing": 29974,
    ")-": 13219,
    "Ġsettlers": 25371,
    "Ġstrain": 14022,
    "Ġlimits": 7095,
    "Ġgy": 21486,
    "Ġdeclared": 6875,
    "Ġpharm": 10113,
    "Ġgunshot": 29444,
    "cussion": 36262,
    "iatric": 11439,
    "ĠFred": 8559,
    "Ġtotality": 44861,
    "Â§": 16273,
    "396": 34107,
    "Users": 14490,
    "/>": 15913,
    "ãģĤ": 40948,
    "lan": 9620,
    "Ġballot": 11100,
    "ĠDust": 16240,
    "Ġbowl": 9396,
    "ĠMemories": 32923,
    "Ġdepend": 4745,
    "Ġbeloved": 14142,
    "Ġessay": 14268,
    "wealth": 14298,
    "Ġensuing": 29543,
    "Ġpots": 32195,
    "ĠSEA": 41067,
    "Wr": 39213,
    "Ġownership": 9238,
    "ĠFAA": 26228,
    "aku": 8719,
    "[]": 21737,
    "Ġindispensable": 35669,
    "ĠJuliet": 38201,
    "Ġfrontline": 44956,
    "LAB": 48780,
    "METHOD": 49273,
    "Ġbooted": 48696,
    "Ġscreens": 8947,
    "âĹı": 28133,
    "Ġregard": 2754,
    "Ġpunishment": 9837,
    "Soon": 28093,
    "perature": 21069,
    "Ġinvasive": 27376,
    "ĠMahm": 31556,
    "added": 29373,
    "ĠFantastic": 27948,
    "International": 24274,
    "ĠEra": 25466,
    "ĠDevon": 36889,
    "Ġderail": 33749,
    "ĠColbert": 31368,
    "Ġexpended": 37328,
    "Ġpains": 24985,
    "Ġgenerated": 7560,
    "Ġorganised": 20325,
    "Ġ192": 17817,
    "Ġchanted": 42261,
    "ĠQuart": 48748,
    "ĠMick": 32722,
    "Ġlantern": 41207,
    "Ġrocket": 10701,
    "Ġvariation": 12291,
    "istors": 46334,
    "Ġresulting": 7186,
    "ope": 3008,
    "Ġconsiderable": 11091,
    "ĠShortly": 27265,
    "Ġgoals": 4661,
    "Ġskysc": 37885,
    "ĠScor": 36191,
    "tracking": 36280,
    "262": 29119,
    "378": 30695,
    "ĠINT": 17828,
    "Ġattacks": 3434,
    "Ġproced": 5131,
    "Ġdetecting": 31521,
    "Ġawaited": 39576,
    "Ġkilomet": 11866,
    "ribed": 8725,
    "ĠMesa": 26670,
    "Ġsorcery": 47815,
    "acca": 43552,
    "RG": 48192,
    "ĠClan": 22467,
    "Ġcrowds": 15779,
    "withstanding": 20701,
    "ĠBAT": 37421,
    "ĠEnterprises": 41253,
    "ĠAether": 43966,
    "ĠTid": 48957,
    "ĠNeptune": 26461,
    "Ă": 190,
    "ĠLOC": 37347,
    "agna": 48669,
    "\"âĢĶ": 15327,
    "ĠWinn": 19454,
    "Ġfarmland": 45723,
    "Ġgrandma": 49890,
    "Ġsweet": 6029,
    "Ġedition": 8313,
    "ĠCopy": 17393,
    "falls": 23348,
    "Ġdrilling": 19747,
    "Ġexpression": 5408,
    "ĠAmbrose": 45263,
    "Ġfacebook": 23960,
    "ĠKoen": 49178,
    "Magic": 22975,
    "Ġwhining": 48978,
    "inem": 7749,
    "ĠOrig": 6913,
    "TE": 9328,
    "ĠChuck": 14663,
    "Ġeventually": 4191,
    "Ġoriginal": 2656,
    "Ùħ": 25405,
    "Ġfractured": 34051,
    "Ġpertinent": 35268,
    "OLOG": 33462,
    "Ġrisk": 2526,
    "enezuel": 12596,
    "ĠLearn": 14365,
    "ĠFam": 16513,
    "Ġfleeing": 19105,
    "Disclaimer": 19618,
    "how": 4919,
    "Ġfamous": 5863,
    "roller": 10646,
    "eday": 23712,
    "ĠFashion": 30958,
    "Ġprimer": 33270,
    "ĠEmmy": 33953,
    "Ġcourtyard": 34941,
    "App": 4677,
    "Ġbuys": 24779,
    "ĠCloud": 10130,
    "Lev": 32163,
    "idious": 33243,
    "rano": 35823,
    "Ġsac": 5360,
    "beaut": 40544,
    "ĠHOL": 49707,
    "Ġ88": 9193,
    "lace": 27077,
    "stone": 6440,
    "asin": 47337,
    "Ġgripped": 42046,
    "Ġindigenous": 17673,
    "Ġwealthiest": 35817,
    "galitarian": 39907,
    "atar": 9459,
    "Ġdefining": 16215,
    "ĠClair": 48195,
    "Ġweekends": 21511,
    "Ġabnormalities": 34615,
    "tis": 48010,
    "ĠRebellion": 34848,
    "Ġcoupling": 40204,
    "Icon": 19578,
    "ĠModern": 12495,
    "Ġrealizes": 23660,
    "Ġawfully": 45421,
    "ĠHK": 31440,
    "Ġparade": 16134,
    "Federal": 24099,
    "itime": 22552,
    "Ġmurdered": 12864,
    "ãĥĪ": 13298,
    "gewater": 40843,
    "Ġprocedure": 8771,
    "ĠWad": 48986,
    "ĠMat": 6550,
    "ĠUTC": 18119,
    "ims": 12078,
    "ĠLect": 31209,
    "Ġoverse": 9125,
    "Ġrad": 2511,
    "ancial": 2783,
    "Ġlaughing": 14376,
    "Ġfunded": 10588,
    "Ġsands": 30959,
    "ĠNortheast": 26315,
    "Ġparamed": 34581,
    "Ġpets": 17252,
    "ĠMedium": 13398,
    "inational": 26201,
    "CBC": 29208,
    "ranged": 34457,
    "ĠElvis": 35169,
    "ĠSetFontSize": 39446,
    "ĠGreenpeace": 42793,
    "Meet": 29318,
    "Ga": 35389,
    "Ġchain": 6333,
    "å¾": 36181,
    "Ġvitamin": 14411,
    "Ġhipp": 18568,
    "Ġtil": 21502,
    "ENC": 24181,
    "hani": 29839,
    "apps": 18211,
    "chanted": 28923,
    "Ġgoblin": 44625,
    "Ġsmuggling": 29529,
    "Ġpatented": 34824,
    "lished": 2115,
    "Ġpotions": 28074,
    "Leary": 48487,
    "985": 42250,
    "Ġimplications": 10939,
    "Ġindustry": 2831,
    "Def": 7469,
    "Ġurge": 14960,
    "ĠArg": 20559,
    "Ġpossesses": 22194,
    "custom": 23144,
    "Ġformulation": 31760,
    "Ġvictorious": 31956,
    "Ġeat": 4483,
    "Ġimpressions": 25885,
    "Hub": 16066,
    "ĠHorror": 22732,
    "ĠRegular": 23603,
    "Ġarchive": 15424,
    "ĠFloyd": 21150,
    "Ġpinned": 25711,
    "itably": 14829,
    "Ġstringent": 32791,
    "ĠParties": 32024,
    "Ġinvoluntary": 37099,
    "Various": 40009,
    "endale": 41147,
    "Ġsolvent": 43209,
    "swe": 46280,
    "Else": 40674,
    "Ġlou": 21081,
    "íķ": 47991,
    "ĠCord": 21119,
    "à¤¾": 48077,
    "ifying": 4035,
    "ĠColleges": 49727,
    "Ġmarried": 6405,
    "ĠMuhammad": 15870,
    "json": 17752,
    "zona": 7551,
    "Brit": 17959,
    "ĠBehavior": 20181,
    "ĠCharacters": 26813,
    "istan": 4103,
    "Ġturbine": 36489,
    "Ġrightfully": 41802,
    "Ġscourge": 50185,
    "Ġsho": 7354,
    "bart": 16575,
    "ĠExtreme": 18111,
    "ki": 4106,
    "Ġextr": 22820,
    "aterasu": 45335,
    "Ġlengthy": 16452,
    "YY": 26314,
    "Ġidiot": 22324,
    "Ġnav": 6812,
    "Ġdreams": 10625,
    "Ġpursuing": 15461,
    "563": 46572,
    "ĠPerry": 14105,
    "Ġclot": 5148,
    "Ġeditorial": 13684,
    "Screen": 23901,
    "ĠSense": 24956,
    "ĠINTER": 23255,
    "ĠIbid": 28865,
    "USS": 32835,
    "Ġflap": 37699,
    "Ġtumor": 22359,
    "Ġprecarious": 38761,
    "Ġexploration": 13936,
    "Ġconfronted": 16675,
    "mission": 3411,
    "Ġnarrowing": 46426,
    "ĠResidents": 29602,
    "brow": 25367,
    "Ġconspicuous": 39089,
    "ĠAg": 2449,
    "ensions": 5736,
    "ĠAber": 27700,
    "Ġdetailed": 6496,
    "YouTube": 33869,
    "Ġchau": 46901,
    "bur": 6236,
    "Ġrunoff": 37536,
    "Ġstri": 2338,
    "Ġcandidate": 4540,
    "Ġcage": 17186,
    "Ġidentity": 5369,
    "ĠUnderstanding": 28491,
    "kell": 17164,
    "Ġagreements": 11704,
    "Ġmeddling": 33545,
    "ĠWikileaks": 35828,
    "Ġbuffers": 39334,
    "ĠRecep": 44970,
    "Ġhotels": 18505,
    "ĠEffects": 17417,
    "cn": 31522,
    "Ġ312": 34465,
    "Ġirresist": 41111,
    "ĠWWF": 43432,
    "Ash": 26754,
    "Ġairflow": 45771,
    "System": 11964,
    "ĠClaims": 36880,
    "Ġmanufactures": 46306,
    "ĠGNU": 22961,
    "Ġdenote": 42685,
    "lift": 26282,
    "Ġliberty": 12354,
    "ery": 1924,
    "Europe": 16112,
    "Ġendeavor": 28251,
    "ĠUrug": 31021,
    "Ġtou": 2819,
    "mar": 3876,
    "ĠFord": 8092,
    "comfort": 21598,
    "ussia": 31269,
    "wrong": 36460,
    "killing": 43764,
    "inition": 17750,
    "ĠRIS": 45698,
    "Bomb": 48478,
    "Ġnearby": 6716,
    "Ġmisc": 12747,
    "Ġchickens": 25972,
    "Ġbroccoli": 44653,
    "ĠCox": 18014,
    "Ġconnector": 21716,
    "Ġjudicial": 13657,
    "Ġtherm": 21969,
    "uko": 29794,
    "FG": 30386,
    "goers": 31006,
    "Ġfungus": 39526,
    "NEY": 36231,
    "ĠComplex": 19157,
    "adel": 6959,
    "BT": 19313,
    "Ġaut": 1960,
    "ĠAfgh": 44238,
    "ĠNicholson": 40365,
    "ĠUndead": 31326,
    "Ġpredictably": 45741,
    "yo": 8226,
    "ĠCert": 14965,
    "Ġlatency": 24812,
    "Ġinc": 753,
    "Ġhacked": 19957,
    "anon": 36902,
    "ĠIrvine": 37277,
    "Ġhun": 5494,
    "ĠDozens": 39672,
    "density": 43337,
    "Ram": 33754,
    "Ġawait": 25507,
    "ritic": 46015,
    "Ġatomic": 17226,
    "Dragon": 17808,
    "ĠChad": 19800,
    "onso": 26666,
    "ometers": 40077,
    "living": 19950,
    "Ġgimm": 33135,
    "otropic": 46084,
    "read": 961,
    "Theme": 47863,
    "Ġmadness": 23208,
    "lets": 5289,
    "ĠFundamental": 49983,
    "omy": 9145,
    "Ġtrial": 4473,
    "004": 22914,
    "Ġhung": 9174,
    "Register": 38804,
    "Ġconvinced": 9431,
    "ĠAlternatively": 25929,
    "ĠDebt": 30319,
    "ateful": 11850,
    "Ġtournaments": 18130,
    "suggest": 47811,
    "ĠGM": 6951,
    "ĠCrossref": 23613,
    "campus": 43842,
    "Ġparasitic": 49238,
    "ĠCrest": 40072,
    "ĠElves": 35172,
    "Ġconsumers": 7008,
    "Ġaccidents": 17390,
    "Ġresemble": 22464,
    "Ġchoking": 39302,
    "under": 4625,
    "Ġspine": 19656,
    "Ġrested": 29263,
    "Ġheap": 24575,
    "Ġderivatives": 28486,
    "Ġbaskets": 46530,
    "Ġsail": 14936,
    "Ġsharply": 18939,
    "ĠGarland": 35466,
    "ĠDeus": 37365,
    ".;": 15089,
    "Ġgraveyard": 27672,
    "ĠSeasons": 33159,
    "scientific": 41355,
    "Ġ195": 24793,
    "Ġringing": 32333,
    "Ġdemocrat": 43268,
    "Ġcraz": 27627,
    "Ġnotebooks": 43935,
    "ĠSinclair": 34927,
    "Ġinflu": 3057,
    "buquerque": 36461,
    "Ġsolid": 4735,
    "Ven": 37522,
    "ĠEgg": 14562,
    "Ġeducate": 20771,
    "Ġdeploy": 6061,
    "Ġpsychiatric": 19906,
    "ĠNate": 23486,
    "Ġrubble": 29632,
    "arna": 28610,
    "ones": 1952,
    "ĠHammond": 26649,
    "Ġpall": 47725,
    "TO": 10468,
    "ĠSpons": 18972,
    "ė": 211,
    "Ġburnt": 22999,
    "ĠCommando": 47150,
    "Huh": 46010,
    "Ġwhopping": 27833,
    "Ġoft": 28639,
    "catch": 40198,
    "Ġinvent": 8067,
    "ĠKimmel": 46552,
    "Ġthreads": 14390,
    "elfth": 44659,
    "Ġdemonic": 33739,
    "ounty": 17705,
    "äº": 12859,
    "uthor": 1457,
    "}\\": 32239,
    "ĠDos": 43976,
    "Write": 16594,
    "sis": 13429,
    "Ġcompletion": 11939,
    "Ġemphasize": 21322,
    "Ġstrives": 37873,
    "Ġ26": 2608,
    "Ġbolt": 18100,
    "Cloud": 18839,
    "ĠCarn": 19659,
    "Ġcorrelated": 23551,
    "Ġinvis": 44837,
    "Ġpedestrians": 26735,
    "Ġtube": 12403,
    "Ġexplosives": 20732,
    "ĠRib": 23133,
    "Document": 24941,
    "Ġ189": 27230,
    "Java": 29584,
    "ĠSmartstocks": 32437,
    "ĠSimone": 47592,
    "ĠRyder": 40238,
    "strom": 20282,
    "Ġprank": 33401,
    "ento": 50217,
    "15": 1314,
    "ĠGEAR": 43790,
    "ĠRegiment": 35588,
    "Ġrule": 3896,
    "Ġpresses": 31048,
    "Ġmidterm": 44066,
    "Capt": 19209,
    "ococ": 34403,
    "ologic": 20781,
    "Ġmuse": 26817,
    "ĠBlazing": 30331,
    "Ġdelivers": 16316,
    "Ġappearing": 12655,
    "unker": 21705,
    "245": 22995,
    "Ġresemblance": 28204,
    "ĠPanther": 30364,
    "Ġviol": 1935,
    "has": 10134,
    "Ġunder": 739,
    "ĠColumn": 29201,
    "Ġlocalized": 36618,
    "vent": 1151,
    "Ġsocioeconomic": 34406,
    "Ġchose": 7690,
    "ĠScientific": 22060,
    "Weight": 25844,
    "åĪ": 26344,
    "ĠCanucks": 31252,
    "cpu": 36166,
    "ĠBeen": 36844,
    "Apart": 39182,
    "ether": 6750,
    "Ġslit": 40724,
    "Depths": 42382,
    "Ġexaggeration": 42769,
    "ĠRetrieved": 43024,
    "ĠNON": 44521,
    "ENGTH": 49494,
    "ĠMotors": 19292,
    "IQ": 33866,
    "avor": 5570,
    "Ġask": 1265,
    "Ġimplies": 15565,
    "Ġ320": 20959,
    "ĠWATCHED": 30134,
    "cript": 6519,
    "Ġboasting": 40776,
    "Ġrum": 7440,
    "Ġultra": 14764,
    "Ġtext": 2420,
    "Ġguided": 17455,
    "Ġconsulted": 26889,
    "ĠXXX": 27713,
    "Ġplunged": 31460,
    "Ġcompact": 16001,
    "RAG": 33202,
    "Ġconductor": 39206,
    "Ġworks": 2499,
    "Ġexc": 2859,
    "OTS": 33472,
    "Ġloosen": 40953,
    "Ġinept": 43891,
    "anski": 44978,
    "Ġimpecc": 45707,
    "Ġoverhaul": 18708,
    "urchase": 18737,
    "bos": 39565,
    "ĠLuckily": 24262,
    "ABLE": 17534,
    "performance": 26585,
    "Ġadoption": 12695,
    "ĠISBN": 32429,
    "upp": 7211,
    "Ġdebunk": 30397,
    "Ġcelebrity": 16527,
    "vg": 45119,
    "odox": 11430,
    "Ġbiased": 21925,
    "ivery": 6315,
    "Ġteenage": 16330,
    "FIN": 20032,
    "NOW": 45669,
    "ĠReaders": 41969,
    "Ġ364": 44969,
    "Ġpatterns": 7572,
    "Ġpocket": 10000,
    "oku": 11601,
    "ĠATK": 24526,
    "ulas": 25283,
    "ĠFA": 9677,
    "ĠBengal": 28630,
    "endra": 48286,
    "ĠPic": 15085,
    "ĠDC": 6257,
    "ipment": 4667,
    "Ġremoving": 10829,
    "Ġrecept": 9420,
    "ag": 363,
    "Ġsurviv": 10132,
    "Ġcould": 714,
    "Ġintended": 5292,
    "Ġplanes": 13016,
    "Very": 16371,
    "Ġbanning": 19479,
    "ĠBeauty": 20774,
    "dem": 9536,
    "Ġ174": 27621,
    "Ġherb": 21047,
    "ĠTrend": 22836,
    "ĠMacBook": 28084,
    "Ġforwarded": 28308,
    "ĠWI": 29360,
    "706": 35402,
    "Ġscrimmage": 39325,
    "Ġbehaves": 39341,
    "ĠConrad": 39708,
    "iger": 8254,
    "onomic": 40036,
    "ATOR": 25633,
    "Ġholy": 11386,
    "ĠNB": 41354,
    "571": 42875,
    "controller": 36500,
    "ĠDuff": 50209,
    "ĠMeet": 21167,
    "Ġay": 38762,
    "Tile": 35103,
    "votes": 29307,
    "ĠEagles": 13785,
    "Ġfacilit": 10410,
    "OH": 12096,
    "Ġcapture": 8006,
    "Ġgarage": 15591,
    "nea": 39718,
    "Ġafternoon": 6672,
    "iche": 14234,
    "Ġeroded": 44699,
    "Ġtokens": 16326,
    "oddy": 38553,
    "ocrin": 39913,
    "Tap": 45081,
    "Ġhint": 9254,
    "ĠWeston": 46949,
    "Ġvendor": 18371,
    "ĠEG": 41513,
    "ricane": 11551,
    "comment": 23893,
    "ĠTrent": 24269,
    "yll": 25727,
    "ĠDill": 44322,
    "issors": 32555,
    "ĠJesus": 5803,
    "701": 41583,
    "Ġsolutions": 8136,
    "Ġnearly": 3016,
    "Ġexplanations": 18681,
    "anda": 5282,
    "ĠVienna": 23825,
    "ĠLag": 21003,
    "Ġhereby": 29376,
    "ĠMore": 3125,
    "Term": 40596,
    "Me": 5308,
    "310": 26717,
    "Ġeach": 1123,
    "disc": 15410,
    "ĠCroatia": 28975,
    "ĠNaj": 37135,
    "ĠPosts": 12043,
    "ĠRoy": 9817,
    ",)": 35751,
    "represented": 33469,
    "Temperature": 42492,
    "Ġbeck": 47673,
    "ĠOutside": 22151,
    "ĠOsama": 29236,
    "Ġè£ı": 6438,
    "EMP": 39494,
    "ĠNap": 14332,
    "ĠCutting": 40152,
    "Ġcheating": 21608,
    "Page": 9876,
    "ĠLater": 11450,
    "ursed": 17539,
    "Ġallergy": 36197,
    "Ġdeceit": 37268,
    "Ġrecomp": 48765,
    "otta": 12375,
    "Ġcap": 1451,
    "ĠFairfax": 33514,
    "ĠâĢ¢": 5595,
    "stein": 5714,
    "Er": 9139,
    "Ġsits": 10718,
    "Indeed": 17854,
    "--------------------": 19351,
    "Sold": 33873,
    "Ġcurve": 12133,
    "Feb": 15146,
    "Ġbleak": 30942,
    "Ġcarbs": 33037,
    "ĠSlovakia": 36839,
    "ĠBreast": 37476,
    "click": 12976,
    "ternity": 19682,
    "Ġpumpkin": 30089,
    "Socket": 39105,
    "aker": 3110,
    "Ġhypocr": 25258,
    "671": 46250,
    "ĠPLoS": 49832,
    "Ġdeaths": 7040,
    "ĠSH": 6006,
    "ĠCAR": 17368,
    "urnal": 35735,
    "ĠCarroll": 21298,
    "ĠBulldogs": 34969,
    "Ġbuggy": 46542,
    "Ġmethod": 2446,
    "fan": 24408,
    "Ġconfessed": 25623,
    "ĠTrick": 30028,
    "ĠEnix": 41361,
    "igne": 48946,
    "abbit": 14229,
    "ĠDemand": 34479,
    "ĠMongo": 42591,
    "Angelo": 45585,
    "lyak": 43782,
    "Ġslideshow": 48828,
    "ĠVolkswagen": 32991,
    "Around": 24472,
    "erson": 882,
    "Have": 11980,
    "Ġ480": 23487,
    "writers": 34422,
    "Ġ>": 1875,
    "Ġagile": 36710,
    "Ġtie": 9839,
    "ele": 11129,
    "Ġgrooming": 41836,
    "Ġecstasy": 38903,
    "thanks": 27547,
    "Ġev": 819,
    "Ã³": 10205,
    "etitive": 17295,
    "Apps": 48433,
    "ĠNV": 23973,
    "zh": 23548,
    "Ġdistortion": 25100,
    "ĠEh": 31480,
    "Ġreliant": 39150,
    "Ġforceful": 42262,
    "ĠCalling": 32677,
    "Playing": 36530,
    "Asian": 43224,
    "ĠAppropriations": 37552,
    "Browser": 46532,
    "utable": 18187,
    "ĠSith": 26455,
    "ĠBecker": 40765,
    "Ġcorrelates": 42567,
    "gee": 29622,
    "ĠSass": 48572,
    "ĠMillions": 39830,
    "ĠParks": 20604,
    "Ġimmersive": 31403,
    "Japan": 16504,
    "Ġw": 266,
    "abled": 4510,
    "ĠMinority": 29980,
    "Ġ\".": 27071,
    "ĠChomsky": 41057,
    "Ġglitches": 43705,
    "Ġhijab": 48492,
    "Ġmarvel": 22672,
    "gal": 13528,
    "Ġprescribed": 14798,
    "IAN": 16868,
    "Ġgranted": 7520,
    "Ġumbrella": 25510,
    "Ġreactors": 28502,
    "ĠFantasy": 10982,
    "Ġcontinued": 3767,
    "ĠSweet": 15335,
    "ĠGlory": 25778,
    "ĠSN": 11346,
    "Kelly": 34831,
    "ikini": 35542,
    "Ġcongen": 41174,
    "ĠNec": 19652,
    "Ġnightmares": 33301,
    "ĠRugby": 26244,
    "ixels": 14810,
    "Ġdresses": 27309,
    "le": 293,
    "alties": 10355,
    "Ġexpenses": 9307,
    "Ġguilt": 14934,
    "Ġ129": 20248,
    "ĠSkywalker": 29715,
    "Ġ376": 44622,
    "Ġdodge": 24885,
    "Ġexcludes": 36833,
    "ENDED": 49361,
    "Twe": 32665,
    "Ġbearer": 49508,
    "Ġspouses": 30250,
    "iologist": 31599,
    "Ġscandal": 10731,
    "drm": 49007,
    "semb": 4428,
    "ivalry": 47310,
    "wang": 47562,
    "Ġtiss": 8815,
    "Ġcapability": 12971,
    "ĠNam": 17871,
    "ĠStev": 42786,
    "odes": 4147,
    "Ġteleport": 32713,
    "Ġlibertarians": 35929,
    "Ġyesterday": 7415,
    "cles": 5427,
    "Ġflowed": 35456,
    "Ġinverted": 37204,
    "Ġrespectable": 27721,
    "Ġreluctantly": 35462,
    "Ġshouting": 19642,
    "Ġequals": 21767,
    "Ġaltercation": 38880,
    "ee": 1453,
    "Ġconclusive": 39689,
    "Ġshook": 14682,
    "Ġwet": 9583,
    "Ġmicroscopic": 41858,
    "Ġparamedics": 42896,
    "Are": 8491,
    "ai": 1872,
    "Ġapprentice": 39252,
    "Ġhonestly": 12698,
    "Ġembassies": 49935,
    "ĠRhino": 47759,
    "Ġcontributing": 14329,
    "ĠOptional": 32233,
    "Ġdeploying": 29682,
    "ighters": 6261,
    "Picture": 28070,
    "Ġblurry": 44701,
    "ĠForth": 50095,
    "Ġcommon": 2219,
    "Ġ89": 9919,
    "Ġdiscussions": 9984,
    "ĠOval": 25165,
    "antage": 36403,
    "Ġprogramming": 8300,
    "Ġargued": 7189,
    "Ġfra": 5306,
    "ĠSound": 9506,
    "Ġcaptain": 10654,
    "Ġtrue": 2081,
    "Ġamb": 4915,
    "isk": 1984,
    "Ġunle": 15809,
    "icer": 16647,
    "Ġtax": 1687,
    "ĠIranians": 34608,
    "åĤ": 43636,
    "Ġprogressively": 34322,
    "ĠSTATES": 47023,
    "Base": 14881,
    "Cond": 25559,
    "ĠPett": 35043,
    "ĠPACK": 47035,
    "PROV": 41283,
    "Ķ": 242,
    "ĠHan": 9530,
    "heim": 9096,
    "Ġdistant": 12899,
    "ĠCan": 1680,
    "ĠPalace": 15301,
    "aca": 22260,
    "hene": 29473,
    "Ġerection": 42056,
    "ĠKnot": 42572,
    "Ġagree": 4236,
    "ĠDeposit": 44158,
    "Ġfirefighters": 22611,
    "ASON": 36033,
    "activate": 39022,
    "Ġpopup": 46207,
    "ĠStard": 40042,
    "ĠNi": 11556,
    "Dub": 37590,
    "ĠMorg": 37417,
    "Ġtru": 45768,
    "itzer": 10557,
    "ĠPower": 4333,
    "693": 48528,
    "ĠDrive": 9974,
    "imer": 22723,
    "Ġundeniable": 36332,
    "Got": 30074,
    "ikarp": 36850,
    "raltar": 45662,
    "Ġbelie": 1250,
    "lasses": 28958,
    "Ġnetted": 49403,
    "running": 20270,
    "Ġwipes": 46142,
    "ĠLotus": 27578,
    "Ġclerics": 47964,
    "Ġintegrate": 19386,
    "will": 10594,
    "ĠBlair": 18520,
    "ken": 3464,
    "Ġoverturned": 27153,
    ")": 8,
    "Ġvows": 36605,
    "Ġmiserable": 22444,
    "781": 49703,
    "ĠScholar": 11713,
    "ĠMight": 24213,
    "Ġrented": 26399,
    "5000": 27641,
    "core": 7295,
    "Val": 7762,
    "ossibly": 20846,
    "Ġattempted": 7482,
    "anyahu": 15966,
    "Ġescort": 27675,
    "Ġemphasizes": 31648,
    "ĠMessiah": 38216,
    "ĠBirth": 17647,
    "Ġunpopular": 24166,
    "ĠCovenant": 25489,
    "Ġincentiv": 39678,
    "ozo": 45149,
    "Ġawards": 13304,
    "ĠSection": 7275,
    "ĠExpl": 5905,
    "ĠEdu": 40766,
    "Ġmit": 10255,
    "Tracker": 35694,
    "leck": 40667,
    "Ġupdating": 19698,
    "tu": 28047,
    "787": 41019,
    "Ġmislead": 42154,
    "Organ": 26121,
    "Amazing": 42770,
    "ĠVal": 3254,
    "Ġreleg": 24542,
    "ĠWinds": 22608,
    "Ġcompromising": 35294,
    "Ġshortest": 35581,
    "ĠDebate": 41029,
    "Ġvisible": 7424,
    "Ġhaul": 25647,
    "ĠIc": 43042,
    "Ġ1994": 9162,
    "mu": 30300,
    "owder": 34656,
    "za": 4496,
    "ĠIndust": 9054,
    "___": 17569,
    "Reg": 8081,
    "ildo": 39583,
    "ĠUDP": 36428,
    "Ġhurd": 22227,
    "Ġmolded": 46725,
    "ĠTort": 28467,
    "ĠSph": 45368,
    "Newsletter": 33031,
    "ĠButler": 17389,
    "Ġlake": 13546,
    "Ġcarrier": 11920,
    "elong": 21537,
    "alias": 26011,
    "Ġdeterrence": 49272,
    "ile": 576,
    "ĠFein": 45711,
    "ĠSurvival": 20303,
    "oner": 14491,
    "ĠBris": 25537,
    "Ġordinance": 19784,
    "allel": 29363,
    "Points": 40710,
    "irts": 9682,
    "Ġtrains": 13404,
    "Ġhurricane": 23964,
    "ĠSTAR": 25424,
    "eters": 7307,
    "ĠFull": 6462,
    "ĠContinue": 10054,
    "ĠRAF": 28168,
    "Ġfirewall": 32928,
    "Ġlaboratories": 35650,
    "Ġ327": 36203,
    "Ġspace": 2272,
    "ĠNations": 7973,
    "Ġlucrative": 22958,
    "ĠCorinth": 31268,
    "reenshots": 39551,
    "ĠGreat": 3878,
    "Ġ\"%": 36521,
    "ĠLaurel": 43442,
    "Ġentrances": 43818,
    "Ġespresso": 48247,
    "Attributes": 29021,
    "Ġgymn": 38581,
    "defense": 19774,
    "Ġangled": 48719,
    "Ġnearer": 40671,
    "Ġgang": 7706,
    "Ġindividually": 17033,
    "Ġknowingly": 26526,
    "lund": 37525,
    "ĠDucks": 27622,
    "episode": 38668,
    "Ġfundament": 14387,
    "Ġblood": 2910,
    "ĠVolunteers": 45646,
    "ĠRetail": 26702,
    "Ġgamble": 32385,
    "Ġclearer": 22363,
    "ĠStatus": 12678,
    "Ġlandscape": 10747,
    "idd": 1638,
    "ĠGear": 10740,
    "ĠWo": 22173,
    "ĠLamar": 26907,
    "ĠSecondary": 29521,
    "NER": 21479,
    "Ġplayer": 2137,
    "Ġstead": 7978,
    "Demon": 35477,
    "!!": 3228,
    "ĠJun": 7653,
    "Ġexplain": 4727,
    "chn": 1349,
    "Ġannouncement": 8009,
    "ĠProtest": 17801,
    "ĠPoison": 19357,
    "Ġcoordinates": 22715,
    "ĠOculus": 22334,
    "ĠContents": 26714,
    "Ġsofter": 32359,
    "ulture": 6456,
    "elligent": 32940,
    "ends": 2412,
    "travel": 35927,
    "OD": 3727,
    "Dis": 7279,
    "Ġearnest": 23176,
    "Chief": 23675,
    "Ġalgebra": 37139,
    "Ġtrickle": 41854,
    "Ġissuer": 44168,
    "ĠRaider": 31423,
    "ĠAbraham": 16660,
    "Ġwarranted": 32502,
    "Ġlogger": 49706,
    "Where": 8496,
    "Ġprisons": 19224,
    "Ġfals": 27807,
    "ĠViz": 36339,
    "ĠCircuit": 13588,
    "Ġ281": 39882,
    "Ġcoales": 46064,
    "TextColor": 42470,
    "Ġspark": 9009,
    "facebook": 19024,
    "reath": 19367,
    "Dist": 20344,
    "ĠField": 7663,
    "juries": 47496,
    "Ġquotations": 50056,
    "ĠGate": 12816,
    "Ġ1966": 19322,
    "ĠTrog": 35791,
    "Ġdown": 866,
    "Ġtrailer": 12268,
    "ans": 504,
    "Ġing": 5347,
    "Ġbubble": 14310,
    "Ġdecad": 46734,
    "Ġcryptic": 47774,
    "Ġthrows": 12542,
    "!\",": 40754,
    "Ġferment": 38797,
    "Ġcomedians": 43520,
    "Features": 23595,
    "Ġnotoriety": 46283,
    "Ġconvoluted": 47370,
    "Medical": 37158,
    "hran": 16848,
    "Ġ1969": 16450,
    "Ġbattlefield": 13480,
    "Ġopted": 18524,
    "ĠLiz": 28313,
    "Ġfares": 33164,
    "etsu": 30470,
    "utorial": 44917,
    "Ġcrim": 3606,
    "uez": 14870,
    "ĠTrailer": 36923,
    "Ġtrib": 8433,
    "uit": 5013,
    "Ġinstituted": 32954,
    "ĠFoundation": 5693,
    "Ġcolourful": 44799,
    "Ġglory": 13476,
    "ĠGulf": 12108,
    "idi": 19830,
    "Ġarrange": 21674,
    "Ġworst": 5290,
    "Ġdebilitating": 41378,
    "Speaking": 13887,
    "Ġcasting": 13092,
    "Ġpund": 24745,
    "ode": 1098,
    "Ġsoothing": 40836,
    "ĠKathryn": 48674,
    "ogn": 2360,
    "åĬ": 27950,
    "Ġtempted": 26194,
    "Ġdispensaries": 40698,
    "debian": 24689,
    "ugal": 43778,
    "ĠShow": 5438,
    "ĠElectric": 13944,
    "Ġcomponent": 7515,
    "ĠBelow": 10383,
    "ĠCamp": 5425,
    "Ġincidence": 18349,
    "ĠWords": 23087,
    "ĠKaepernick": 30112,
    "Ġjavascript": 44575,
    "ĠSuffolk": 45034,
    "ĠEstimates": 47052,
    "ĠKDE": 36632,
    "ĠCorpse": 45311,
    "Ġcas": 6124,
    "ĠNicol": 40513,
    "pelling": 35025,
    "oodle": 27106,
    "hyd": 15511,
    "ĠBear": 14732,
    "Ġ01": 5534,
    "Ġstand": 1302,
    "Open": 11505,
    "eled": 18449,
    "Ġterrific": 23754,
    "ĠUnicode": 34371,
    "osaurus": 47650,
    "Ġblocks": 7021,
    "Ġside": 1735,
    "ĠHopkins": 21183,
    "ĠIEEE": 40552,
    "Ġresumes": 42626,
    "ĠPoly": 12280,
    "Ġ1965": 17672,
    "Ġblat": 21451,
    "æĸ¹": 43095,
    "Ġpension": 13553,
    "\\\\\\\\\\\\\\\\\\\\\\\\\\\\\\\\": 34604,
    "iHUD": 38370,
    "Ġlicence": 17098,
    "ĠBangladesh": 19483,
    "ute": 1133,
    "Ġfirm": 4081,
    "Ġroadside": 39479,
    "ĠRepublic": 2066,
    "Ġampl": 12306,
    "Ġfing": 8038,
    "ĠStra": 15195,
    "Ġbullets": 16043,
    "ĠIQ": 18248,
    "ĠPlaza": 23280,
    "ĠLifetime": 40870,
    "ĠPark": 3250,
    "lled": 3353,
    "Ġwhiskey": 29219,
    "Ġadept": 34080,
    "ith": 342,
    "ĠLinear": 44800,
    "Ġrele": 1889,
    "rescent": 26505,
    "Ġfireball": 46816,
    "ĠMusic": 7849,
    "Ġsleeps": 44263,
    "ĠLaure": 13826,
    "Ġ74": 8915,
    "Ġapp": 598,
    "ĠHeavy": 14089,
    "Ġsmaller": 4833,
    "ĠTransport": 19940,
    "heard": 23636,
    "Ġ149": 24041,
    "ĠMillennium": 26139,
    "ĠSeek": 40749,
    "Ġskew": 43370,
    "Ġwallpaper": 39328,
    "Ġwants": 3382,
    "ĠValencia": 35773,
    "Ġgrim": 18288,
    "oco": 25634,
    "ĠKuro": 25796,
    "inges": 26792,
    "Ġaber": 42499,
    "stant": 18797,
    "urring": 14924,
    "Ġvolunt": 11631,
    "Size": 10699,
    "Ġharm": 4419,
    "ĠTherefore": 8447,
    "izophren": 18337,
    "Sea": 37567,
    "ĠSloven": 30694,
    "Avoid": 38618,
    "Ġsighting": 42110,
    "Ġwasteful": 45393,
    "ĠYuk": 19760,
    "Cart": 43476,
    "ĠDN": 45080,
    "Ġexplorer": 39349,
    "Ġkingdom": 13239,
    "idate": 20540,
    "vised": 16149,
    "please": 29688,
    "Ġ[*]": 36338,
    "vironment": 2468,
    "ĠShard": 32822,
    "Ġphotographic": 35788,
    "50": 1120,
    "Ġsit": 1650,
    "interest": 9446,
    "Ġbloss": 35107,
    "enth": 7944,
    "ĠAccordingly": 28386,
    "ÃĽ": 34543,
    "MAR": 40569,
    "Ġhospitals": 11301,
    "Ġcharity": 11016,
    "worthiness": 48756,
    "ĠCongressional": 15757,
    "aging": 3039,
    "ĠMOD": 19164,
    "Ġdislike": 23109,
    "Ġunexpectedly": 25884,
    "Ġunlimited": 15822,
    "antasy": 34921,
    "ired": 1202,
    "ĠAra": 30574,
    "Ġfirsthand": 37318,
    "Ġfinances": 20903,
    "163": 24136,
    "ĠBri": 25866,
    "isu": 46313,
    "Ġdep": 1207,
    "Ġmounting": 17260,
    "ĠTaiwanese": 41777,
    "Ġflats": 38157,
    "Ġdoct": 10412,
    "Ġconcerns": 4786,
    "ĠCritical": 17684,
    "Ġdocumenting": 33045,
    "Ġplat": 40315,
    "Ġemptiness": 49333,
    "Ġfooth": 36522,
    "ĠQR": 42137,
    "VOL": 44558,
    "usalem": 10555,
    "Ġshoe": 17292,
    "ĠShen": 22323,
    "Ġsurgeon": 23923,
    "Michigan": 40610,
    "pm": 4426,
    "ĠLiberals": 20162,
    "obil": 25898,
    "Ġadvisors": 32456,
    "tin": 43701,
    "Ġunderest": 20164,
    "Ġfundra": 12663,
    "Ġherd": 27638,
    "Ġrelated": 3519,
    "Native": 31272,
    "requires": 47911,
    "Ġaimed": 8998,
    "From": 4863,
    "Ġrewrite": 28183,
    "Ġko": 41727,
    "Ġchoke": 28504,
    "Rush": 49942,
    "ĠAgent": 15906,
    "ĠSurface": 20321,
    "Ġnotice": 4003,
    "ĠSatan": 14918,
    "ĠCincinnati": 16137,
    "chal": 38009,
    "ĠDestroyer": 30414,
    "Ġscrape": 42778,
    "Ġfinalists": 43736,
    "Ġgland": 37917,
    "ĠKessler": 46474,
    "ĠJinn": 48653,
    "Ġ21": 2310,
    "Ġdiets": 18977,
    "wa": 10247,
    "ĠDrum": 25331,
    "Ġunequ": 21149,
    "Ġunfinished": 34419,
    "Ġcompromised": 19066,
    "Ġcontains": 4909,
    "ĠCantor": 44577,
    "fters": 47131,
    "ICE": 8476,
    "atre": 10562,
    "Ġdrafted": 15937,
    "ĠPod": 17437,
    "ĠLap": 26944,
    "ĠRh": 10323,
    "Ġtradition": 6761,
    "ĠTaliban": 15471,
    "Ġsergeant": 33861,
    "ried": 2228,
    "Ġserotonin": 32236,
    "Ġsoldier": 10686,
    "ĠModified": 40499,
    "Ġimplicated": 28344,
    "What": 2061,
    "ĠMoon": 6869,
    "ĠImprovement": 33764,
    "Ġappro": 1331,
    "ĠHannity": 35368,
    "ĠCarolina": 5913,
    "2006": 13330,
    "Ġtenth": 24395,
    "ĠGCC": 42362,
    "Ġmetals": 21782,
    "Ġreceipts": 29946,
    "Ġwaist": 16139,
    "Ġintellectual": 9028,
    "Ġowe": 19059,
    "those": 25591,
    "ĠGru": 25665,
    "ĠPhotographer": 43809,
    "ĠMUST": 17191,
    "ĠEv": 4319,
    "Game": 8777,
    "Ġgardening": 46072,
    "cot": 25557,
    "Ġtemporary": 8584,
    "Ġmapped": 27661,
    "Ġcomparison": 7208,
    "aiden": 17538,
    "Ġproposition": 19168,
    "ĠMcCabe": 45395,
    "Ġuntold": 47872,
    "wx": 49345,
    "Ġuninstall": 43194,
    "guy": 22932,
    "ĠJO": 32357,
    "ģĸ": 45433,
    "acho": 43703,
    "uttered": 46322,
    "ĠJuice": 35161,
    "traditional": 36380,
    "Ġtagging": 49620,
    "ĠNorthern": 8342,
    "ĠRos": 10018,
    "bidden": 37978,
    "Ġwake": 7765,
    "leton": 10565,
    "Ġboiling": 24372,
    "Ġliabilities": 25333,
    "ĠPont": 26345,
    "released": 30147,
    "ĠPeter": 5613,
    "tted": 28734,
    "Ġtravers": 33038,
    "romising": 47112,
    "roads": 21372,
    "GT": 19555,
    "ailable": 1508,
    "books": 12106,
    "Giving": 49701,
    "Ġreim": 21123,
    "Ġsteals": 28052,
    "ĠHogwarts": 30922,
    "founder": 15454,
    "Ġphylogen": 43422,
    "Ġpending": 13310,
    "Ġcustomize": 24184,
    "SQL": 17861,
    "editor": 35352,
    "ĠFeaturing": 39778,
    "ĠBenn": 14025,
    "ĠMaharashtra": 41624,
    "Ġharsh": 11859,
    "Ġacademics": 22321,
    "idation": 24765,
    "rote": 2519,
    "Ġbrown": 7586,
    "Ġ69": 8644,
    "Ġtelevision": 5581,
    "~~~~~~~~~~~~~~~~": 27156,
    "Ġresidual": 29598,
    "chard": 30215,
    "ĠPaladin": 26693,
    "Ġadip": 31659,
    "FML": 34708,
    "Ġmanned": 34737,
    "Ġfortunately": 39955,
    "Ġhp": 27673,
    "ieu": 22304,
    "ĠMeadow": 43868,
    "Ġunintentionally": 44793,
    "famous": 45143,
    "Ġscattering": 45765,
    "Ġcaucus": 24402,
    "Ġdemolished": 33359,
    "Ġchecklist": 41859,
    "ĠBJ": 47204,
    "ĠCoast": 8545,
    "Bear": 36352,
    "iever": 47818,
    "ĠAugust": 2932,
    "lings": 17783,
    "Ġprud": 25220,
    "Tai": 47976,
    "ĠKaine": 37193,
    "Ġepis": 48177,
    "Ġdataset": 27039,
    "ĠNASL": 49151,
    "Cross": 21544,
    "igue": 15212,
    "Ġrece": 1407,
    "Ġ119": 15136,
    "ĠBottom": 24530,
    "Ġhandful": 10089,
    "auna": 32837,
    "Ġdecorations": 39011,
    "prof": 5577,
    "ĠZot": 22621,
    "Ġactivated": 13906,
    "ĠMom": 11254,
    "polit": 34470,
    "ĠForum": 14867,
    "Extreme": 36716,
    "Ġprovides": 3769,
    "Ġtroopers": 38817,
    "tek": 35424,
    "Ġsleepy": 42023,
    "Ġak": 47594,
    "Ġharassment": 10556,
    "ĠSexy": 49131,
    "Ġ\"âĢ¦": 29368,
    "Murray": 49998,
    "Ġlease": 15278,
    "ĠBeth": 19223,
    "ĠLodge": 27046,
    "ĠYu": 10605,
    "ĠDowning": 31355,
    "Ġoutspoken": 27687,
    "Ġoxide": 30788,
    "True": 17821,
    "Sales": 44490,
    "())": 28955,
    "Â¯Â¯Â¯Â¯": 8980,
    "sword": 30553,
    "Ġcharming": 23332,
    "warts": 26586,
    "Ġabsurd": 12986,
    "Ġmould": 35370,
    "Ġsink": 14595,
    "Ġlang": 42392,
    "Ġguaranteeing": 50156,
    "ĠBasic": 14392,
    "Ġcitizens": 4290,
    "Ġyoutube": 35116,
    "ĠSatellite": 33530,
    "onies": 17300,
    "...]": 22345,
    "Ġcac": 40428,
    "ĠTransition": 40658,
    "Ġbuzzing": 41719,
    "Ġsteadily": 18434,
    "official": 16841,
    "Ġado": 50129,
    "vi": 8903,
    "Ġpersu": 10722,
    "ĠMcInt": 39086,
    "Ġprejudices": 39800,
    "ĠDef": 2896,
    "cept": 984,
    "Ġ319": 40385,
    "iom": 29005,
    "Ġapprovals": 45818,
    "ĠTracking": 37169,
    "Ġ1050": 47235,
    "ĠBrah": 36415,
    "ĠBrooks": 17704,
    "LIB": 40347,
    "sim": 14323,
    "Ġclasses": 6097,
    "Ġconsoles": 22629,
    "awa": 6909,
    "according": 38169,
    "Ġcomplication": 45185,
    "Ġhomeowner": 40130,
    "Ġreflex": 24133,
    "ĠBungie": 47593,
    "Ġnom": 4515,
    "Or": 5574,
    "Ġacceler": 8320,
    "bf": 19881,
    "ĠAlban": 27001,
    "Ġusually": 3221,
    "Original": 20556,
    "ĠSecret": 3943,
    "ĠScouts": 30456,
    "shape": 43358,
    "Ġexempt": 13068,
    "short": 19509,
    "hibit": 26964,
    "Ġcutting": 7720,
    "Ġconfer": 35132,
    "Ġunamb": 42053,
    "Tips": 43368,
    "hots": 17398,
    "berry": 8396,
    "HT": 6535,
    "Ġ999": 36006,
    "ocide": 16207,
    "Ġknob": 36842,
    "Ġvery": 845,
    "aldo": 41476,
    "Ġcorrosion": 41677,
    "Warren": 43464,
    "Ġtaxis": 45049,
    "ĠStacy": 49523,
    "Ġdeities": 43844,
    "ran": 2596,
    "Ġlawn": 21133,
    "ł": 254,
    "ĠRam": 7431,
    "ibli": 29142,
    "iku": 28643,
    "aughed": 13726,
    "Ġstarters": 19896,
    "Ġeyel": 29708,
    "ĠFriendly": 38683,
    "toggle": 44256,
    "rica": 30997,
    "ĠWomen": 6926,
    "ĠChristianity": 13624,
    "Ġstride": 33769,
    "ĠPenguins": 29755,
    "Ġcollapsing": 30792,
    "Ġratification": 48815,
    ")*": 27493,
    "places": 23625,
    "Ġourselves": 6731,
    "changed": 40985,
    "femin": 33594,
    "ysical": 15380,
    "Ġdrawbacks": 42763,
    "ĠStab": 49726,
    "²¾": 39333,
    "Ġspectator": 43893,
    "Ġpairs": 14729,
    "ks": 591,
    "Ġreporters": 7638,
    "ĠSamar": 34077,
    "ĠKarin": 38802,
    "ĠIGN": 28730,
    "Ġwindow": 4324,
    "Ġcollapse": 9807,
    "sv": 21370,
    "ĠHarry": 5850,
    "elligence": 3480,
    "Ġshe": 673,
    "Ġsuch": 884,
    "ĠJess": 12707,
    "Ġscary": 14343,
    "Ġlayers": 11685,
    "ForgeModLoader": 24934,
    "Germany": 27079,
    "middle": 27171,
    "ĠHolding": 31703,
    "chip": 35902,
    "Ġdoubts": 17188,
    "Ġft": 10117,
    "usable": 31979,
    "reset": 42503,
    "Ġrequisite": 37088,
    "ilts": 50076,
    "Ġreveals": 10069,
    "ĠProvides": 47081,
    "ĠBadge": 44308,
    "Ġplaceholder": 46076,
    "irty": 5893,
    "aukee": 15263,
    "Bon": 20682,
    "ĠPik": 26025,
    "Ġtooth": 16162,
    "orange": 43745,
    "520": 31211,
    "ners": 2741,
    "Ġterminate": 23654,
    "Ġautomobiles": 44820,
    "ĠVaj": 39838,
    "bytes": 33661,
    "andering": 42454,
    "akers": 3979,
    "ĠPaw": 35553,
    "arding": 13493,
    "ĠGlover": 43487,
    "993": 44821,
    "Ġcertified": 15704,
    "ĠConsortium": 42727,
    "ĠYar": 45184,
    "Ġeighty": 37516,
    "Ġoffer": 2897,
    "ansson": 44038,
    "Ġmillionaires": 48675,
    "inging": 14146,
    "immer": 10957,
    "unique": 34642,
    "Ġevangel": 17138,
    "Ġapologies": 32920,
    "Ġobliged": 23278,
    "Ġlush": 37408,
    "Ġundet": 40615,
    "598": 41292,
    "asuring": 45925,
    "Ġlash": 46967,
    "Ġfluor": 26967,
    "ĠSpread": 31843,
    "Ġrunaway": 39732,
    "Print": 18557,
    "Jane": 41083,
    "Ġfit": 4197,
    "Ġnaval": 19014,
    "ĠGators": 47470,
    "orescence": 48699,
    "Ġpuberty": 35149,
    "Ġfights": 11418,
    "Ġhorizont": 13736,
    "ĠFram": 15183,
    "Ġinstead": 2427,
    "Ġalmond": 26948,
    "Ġseat": 5852,
    "Ġcondensed": 38784,
    "ĠJuly": 2901,
    "ĠVictim": 38901,
    "Ġpassionately": 43136,
    "Ġovercome": 10980,
    "Atlanta": 43482,
    "ira": 8704,
    "Ġconsiderations": 18506,
    "omaly": 24335,
    "Ġanonymously": 35373,
    "vention": 4018,
    "abeth": 9407,
    "irk": 14232,
    "bial": 25200,
    "ĠPastebin": 29582,
    "Ġquality": 3081,
    "Ġconcentrate": 20062,
    "ĠBiol": 38637,
    "Ġjargon": 46468,
    "Ġme": 502,
    "ĠFirearms": 32389,
    "ĠCutler": 37194,
    "Alien": 44501,
    "Ġrib": 12183,
    "ĠFlavoring": 49813,
    "139": 20219,
    "ĠPh": 1380,
    "indu": 10259,
    "Ġzombie": 15956,
    "Ġincomp": 13352,
    "Ġhistories": 25985,
    "Instant": 49933,
    "Ġpillars": 30485,
    "ĠBach": 25332,
    "54": 4051,
    "government": 14480,
    "Ġdisks": 32505,
    "Ġpoignant": 45516,
    "ĠScientist": 33374,
    "ĠRCMP": 28797,
    "ĠSpartans": 45130,
    "ĠFriday": 3217,
    "Ġgems": 23685,
    "Ġfibre": 33073,
    "Ġfried": 23018,
    "ĠAllies": 32430,
    "Ġperenn": 34893,
    "Ġshotgun": 18607,
    "jpg": 9479,
    "ĠPastor": 38256,
    "ĠRath": 26494,
    "ĠGhosts": 38389,
    "ĠDungeons": 25461,
    "OHN": 27600,
    "Ġreconcil": 40534,
    "ĠNavigation": 42115,
    "luence": 23079,
    "Ġtouring": 25583,
    "ock": 735,
    "496": 37747,
    "ĠJace": 49674,
    "\"âĢ¦": 24426,
    "Ġsolidly": 49549,
    "address": 21975,
    "Ġaccording": 1864,
    "Ġexhibit": 15866,
    "ĠDerek": 20893,
    "Ġpros": 10360,
    "ottest": 24879,
    "ġ": 221,
    "ulate": 5039,
    "uscript": 15817,
    "Ġhouseholds": 12503,
    "stick": 13915,
    "Ġspreading": 14342,
    "Ġjack": 14509,
    "ĠAddiction": 40187,
    "lux": 22564,
    "Ġr": 374,
    "Ġsumm": 30114,
    "ĠHorse": 18455,
    "ĠWitt": 38005,
    "ĠMalays": 12230,
    "Ġcran": 41286,
    "Ġconscious": 6921,
    "WC": 27353,
    "ĠSocket": 47068,
    "ĠSpanish": 7897,
    "UD": 8322,
    "Ġsalesman": 42414,
    "ley": 1636,
    "Ġbrist": 48197,
    "leases": 29329,
    "aline": 20663,
    "Ġted": 28501,
    "Ġreviewers": 30702,
    "ĠTerritories": 42354,
    "ãĥīãĥ©ãĤ´ãĥ³": 24731,
    "ĠSpirit": 7710,
    "Ġinvited": 9392,
    "item": 9186,
    "emer": 24677,
    "ĠKron": 44732,
    "ĠHawking": 50220,
    "ĠHarbour": 42177,
    "Ġnarrative": 8689,
    "Ġcreative": 7325,
    "emade": 21398,
    "Ġmanner": 5642,
    "ĠBible": 9111,
    "ained": 1328,
    "endment": 5904,
    "perty": 9287,
    "Ġpersecution": 22839,
    "antics": 29320,
    "èĢ": 32003,
    "Ġdecomp": 38237,
    "Ġallerg": 30975,
    "ĠRolls": 40074,
    "Recommend": 41248,
    "Ġrundown": 45602,
    "Ġseminars": 44160,
    "ĠLead": 20116,
    "Ġshady": 36135,
    "Ġinfuri": 35905,
    "ore": 382,
    "Ġchanges": 2458,
    "etics": 14596,
    "Ġtop": 1353,
    "arters": 6137,
    "Ġgarment": 30594,
    "Ġ191": 31009,
    "Ġclones": 32498,
    "Ġcyclist": 34632,
    "Dallas": 40540,
    "ĠNigeria": 19398,
    "Ġinsensitive": 41246,
    "ĠGuru": 38749,
    "Ġnoting": 10820,
    "iflower": 42642,
    "CDC": 47667,
    "odiac": 40096,
    "Ġinherent": 11519,
    "Ġstress": 5503,
    "ĠAuthentication": 48191,
    "ĠStanton": 36442,
    "Ġtactics": 10815,
    "Ġconstitutes": 19300,
    "Ġcomic": 9048,
    "Ġsport": 6332,
    "UES": 35409,
    "Ġsheet": 9629,
    "KNOWN": 44706,
    "Ġanthem": 24577,
    "ĠAtari": 35884,
    "Ġtrading": 7313,
    "NT": 11251,
    "abilities": 5738,
    "Ġner": 17156,
    "Ġ365": 21268,
    "Ġexploits": 27062,
    "Ġspices": 27952,
    "Ġfloated": 29742,
    "Ġexpansions": 36383,
    "Ġadvisory": 20852,
    "Ġordinary": 8850,
    "MORE": 23346,
    "Ġconqu": 20277,
    "ified": 1431,
    "Ġprofessions": 34423,
    "çĶŁ": 37955,
    "ĠSidd": 44487,
    "ĠClapper": 44834,
    "Ġdisappearing": 28867,
    "********************************": 17174,
    "ĠDaily": 6714,
    "ibus": 26333,
    "Ġprox": 14793,
    "Ġextensive": 7667,
    "Ġachievement": 13293,
    "Local": 14565,
    "ĠEden": 23369,
    "Ġjoints": 24039,
    "ĠSaddam": 24277,
    "ĠSpock": 37945,
    "mia": 20730,
    "ĠTypically": 27095,
    "utor": 38409,
    "ĠPlague": 35236,
    "Ġspin": 7906,
    "Ġrisked": 42179,
    "Ġfort": 6285,
    "Condition": 48362,
    "ECD": 27295,
    "Ġrewriting": 49614,
    "ĠUtah": 10202,
    "re": 260,
    "Ġcrus": 25164,
    "Char": 12441,
    "Ġnutrition": 16633,
    "dating": 38734,
    "Ġmundane": 30741,
    "itness": 3659,
    "ĠGra": 7037,
    "ĠESV": 33910,
    "Ġwrites": 6797,
    "Ġcue": 28381,
    "ON": 1340,
    "Ġlongitudinal": 36211,
    "ĠZoo": 21980,
    "Ġbroom": 47085,
    "Ġqu": 627,
    "Ġgif": 9381,
    "Ġkeywords": 26286,
    "153": 21395,
    "ĠLeave": 17446,
    "Ġfluids": 28704,
    "weapon": 28741,
    "aleigh": 30729,
    "Ġadhesive": 43608,
    "ĠBlizzard": 20206,
    "Ġsank": 30895,
    "Ġbreath": 8033,
    "ĠFortune": 20425,
    "ĠKrist": 14912,
    "Ġimproves": 19575,
    "Ġincludes": 3407,
    "Ġevacuated": 23724,
    "ĠDen": 5601,
    "Ġsaga": 26784,
    "Ġindifferent": 31655,
    "ĠPry": 32500,
    "Ġ425": 36959,
    "Ġarbitrarily": 40647,
    "untled": 46343,
    "Ġcake": 12187,
    "apsed": 28361,
    "Too": 23307,
    "Ġinvestment": 4896,
    "Ġderog": 38417,
    "ĠNeander": 38752,
    "Ġanniversary": 11162,
    "ĠPsychic": 38874,
    "ago": 3839,
    "ĠStress": 36957,
    "Ġptr": 50116,
    "ĠART": 24278,
    "Ġreferee": 22957,
    "Creating": 32071,
    "Country": 33921,
    "Ġsolitude": 49917,
    "ĠGods": 15391,
    "ĠTenth": 44519,
    "////": 9705,
    "Ġunification": 49080,
    "aunting": 20706,
    "ĠDAV": 42274,
    "Ġpromoted": 13722,
    "Ġbrands": 11394,
    "ĠAdvance": 25170,
    "Ġduration": 9478,
    "ties": 4278,
    "Ġintimidation": 27341,
    "ĠGap": 33899,
    "Ġrudimentary": 47381,
    "akura": 47754,
    "sold": 24120,
    "Ġscarf": 36953,
    "ĠLee": 5741,
    "¡": 94,
    "Ġleave": 2666,
    "Ġvirus": 9471,
    "hurst": 33500,
    "liberal": 35739,
    "Ġcrippled": 38961,
    "ACY": 43300,
    "271": 28977,
    "gt": 13655,
    "Ġrehab": 14321,
    "anded": 12249,
    "planes": 22587,
    "Ġpatrol": 13969,
    "ĠWeld": 45156,
    "Ġinterception": 28759,
    "ĠLoch": 45264,
    "Ġbeetle": 45489,
    "Ġimpe": 18516,
    "ãĥĲ": 29659,
    "Ġdc": 30736,
    "Ġdd": 49427,
    "Ġdiabetic": 44016,
    "Ġunarmed": 24270,
    "seys": 27717,
    "ĠUnch": 34867,
    "ĠNou": 44599,
    "ĠGENERAL": 41877,
    "Ġwhats": 45038,
    "083": 48290,
    "ĠNamed": 34441,
    "Ġoutcry": 34334,
    "Ġrides": 17445,
    "ĠInstitutes": 33656,
    "ĠEdward": 10443,
    "License": 34156,
    "Ġbomb": 5194,
    "Ġconsiderably": 15394,
    "apons": 13486,
    "Ġeyeb": 16067,
    "LOG": 25294,
    "Ġrumours": 30427,
    "ĠFrench": 4141,
    "Ġtolerate": 21923,
    "ĠTimberwolves": 48983,
    "itude": 3984,
    "ĠGuitar": 31550,
    "Ġperm": 9943,
    "argument": 49140,
    "suff": 37333,
    "ix": 844,
    "Ġsovereignty": 18582,
    "Ġput": 1234,
    "Ġthank": 5875,
    "looking": 11534,
    "own": 593,
    "Jessica": 45572,
    "Ġ421": 49294,
    "Ġmovie": 3807,
    "pired": 6474,
    "MAL": 42126,
    "Ġjustify": 12051,
    "UTE": 37780,
    "ĠDino": 39430,
    "Ġhacker": 23385,
    "ĠProjects": 29898,
    "Ġunstoppable": 40181,
    "asar": 42391,
    "ĠRouge": 27478,
    "ĠMacintosh": 48087,
    "_>": 49029,
    "Ġmayor": 9591,
    "catentry": 39165,
    "Ġpersons": 6506,
    "Ġtox": 8293,
    "iggurat": 44557,
    "Ġown": 898,
    "href": 33257,
    "ĠBrief": 22821,
    "rored": 34640,
    "Ġchooses": 19769,
    "Ġhurled": 43186,
    "ĠFitzpatrick": 44271,
    "ĠBonds": 39161,
    "Ġdads": 47713,
    "Ġclustered": 49480,
    "herent": 8334,
    "Ġorganisms": 20296,
    "milo": 48995,
    "brew": 11269,
    "Ġresolves": 38709,
    "ĠTripoli": 47318,
    "ĠTowards": 49953,
    "sylvania": 9270,
    "Mont": 26031,
    "U": 52,
    "âĶģ": 47486,
    "Ġwives": 17743,
    "ĠWalker": 10120,
    "ĠRack": 37927,
    "Ġdotted": 38745,
    "Ġital": 46127,
    "Ġbeads": 36116,
    "Ġdocs": 34165,
    "Ġsupplement": 10327,
    "Ġupgrading": 25485,
    "Ġjarring": 47300,
    "Ġsafe": 3338,
    "Ġtragedies": 42546,
    "INO": 46016,
    "ĠIndiana": 10278,
    "Russ": 10020,
    "Ġsurprise": 5975,
    "Ġoutl": 41528,
    "ĠBugs": 44991,
    "safety": 44708,
    "Ġflora": 48037,
    "ĠFranÃ§ois": 50208,
    "Orig": 11610,
    "Ġoccupy": 22265,
    "ĠFuck": 25617,
    "=\"#": 25698,
    "ĠFay": 35136,
    "fixed": 34021,
    "Desktop": 36881,
    "Ġunsatisf": 39264,
    "shots": 20910,
    "Ġlobbyist": 35196,
    "Sec": 6558,
    "woman": 8580,
    "Ġstool": 38753,
    "Ġledger": 37208,
    "ĠProgramme": 35232,
    "zn": 47347,
    "Ġintra": 23422,
    "Ġrelational": 50126,
    "job": 21858,
    "country": 19315,
    "invoke": 37669,
    "ĠCollection": 12251,
    "ĠEnglish": 3594,
    "ĠPoles": 45631,
    "''": 7061,
    "ĠBra": 9718,
    "Ġthereby": 12839,
    "Ġviews": 5009,
    "SEE": 36078,
    "Luckily": 42332,
    "Ġunfolds": 45995,
    "butt": 43059,
    "ĠOccup": 15227,
    "CRIPTION": 40165,
    "ĠMoroccan": 49323,
    "room": 3823,
    "Ġspl": 4328,
    "Ġscen": 4408,
    "mate": 9830,
    "ĠSelect": 9683,
    "ĠArmed": 16657,
    "ĠMetatron": 38894,
    "pac": 33587,
    "Ġgrading": 43165,
    "ĠYs": 43740,
    "Apple": 16108,
    "ĠExercise": 32900,
    "Ġbashing": 48419,
    "ĠWaiting": 39669,
    "Ġporous": 48242,
    "Ġintrusive": 39930,
    "ked": 9091,
    "Ġartificial": 11666,
    "ĠParenthood": 18461,
    "Ġnewborn": 23856,
    "ĠactionGroup": 34027,
    "Ġresulted": 8724,
    "Ġ1915": 32062,
    "ĠHermione": 19959,
    "Ã£": 26102,
    "Ġ1870": 37667,
    "ĠNavajo": 47380,
    "Ġignition": 37594,
    "Ġacts": 6529,
    "ĠCoach": 16393,
    "Ġmah": 42768,
    "Ġà¤": 28225,
    "Ġfiner": 38575,
    "Ġfathers": 17150,
    "ĠAustralian": 6638,
    "ĠMonetary": 34112,
    "Ġdetectives": 24304,
    "Ġphilos": 5622,
    "Ġconstrued": 30816,
    "Ġhunted": 34275,
    "Ġparent": 2560,
    "olph": 10196,
    "Ğ": 218,
    "Ġamount": 2033,
    "Ġrough": 5210,
    "ĠSpell": 11988,
    "ĠTerrit": 18968,
    "unny": 16948,
    "ondo": 22311,
    "ĠMonkey": 26997,
    "Ġsource": 2723,
    "Ġrealized": 6939,
    "455": 30505,
    "brain": 27825,
    "ĠGuardians": 19752,
    "checking": 41004,
    "Ġraw": 8246,
    "ĠCoalition": 15135,
    "hibition": 24108,
    "om": 296,
    "Ġfuzz": 26080,
    "ĠCSV": 44189,
    "Ġspears": 46842,
    "Gi": 33704,
    "aro": 12022,
    "amac": 11494,
    "Ġturbines": 35658,
    "ixon": 12305,
    "ĠSTE": 24483,
    "Ġnortheast": 24287,
    "elcome": 9571,
    "aps": 1686,
    "fat": 17359,
    "213": 26427,
    "ĠUse": 5765,
    "Ġedited": 13012,
    "ĠRequest": 19390,
    "ĠPit": 16889,
    "jas": 28121,
    "oid": 1868,
    "Ġpowerhouse": 34886,
    "puted": 17128,
    "Required": 37374,
    "fur": 38916,
    "å¤©": 25465,
    "Ġexclaim": 48775,
    "Ã¶n": 48863,
    "oley": 48437,
    "oshi": 13704,
    "Ġbroad": 3154,
    "aces": 2114,
    "browser": 40259,
    "GD": 45113,
    "umann": 40062,
    "Ġdepletion": 42435,
    "ĠGuantanamo": 34378,
    "pection": 14978,
    "Ġsurvive": 7866,
    "Ġmono": 33361,
    "Ġiod": 41080,
    "ĠTokens": 47365,
    "ĠKramer": 41454,
    "Deploy": 49322,
    "ĠRising": 17658,
    "arming": 18052,
    "Ġactivating": 35795,
    "Ġwiki": 22719,
    "Ġdad": 9955,
    "har": 9869,
    "Ġneo": 19102,
    "Ġnon": 1729,
    "inosaur": 21317,
    "Ġcorrections": 26251,
    "Ġenhancing": 27496,
    "Ġnorthwestern": 48164,
    "Ġmax": 3509,
    "Ġterminated": 23083,
    "779": 40393,
    "Ġlabyrinth": 41553,
    "202": 19004,
    "Ġeffected": 43495,
    "ĠAshley": 20899,
    "Ġintim": 10683,
    "Ġentertainment": 9739,
    "Ġcombat": 5249,
    "Ġspiritual": 8557,
    "usions": 15880,
    "Ġmodern": 3660,
    "ĠErnst": 38129,
    "Ġbench": 7624,
    "yx": 28391,
    "Ġdisperse": 41273,
    "Ġbuttons": 12163,
    "Ġtranssexual": 41482,
    "Ġinfluences": 16717,
    "ĠMobility": 34505,
    "Wide": 42559,
    "Ġdiner": 47519,
    "Ġconflicts": 12333,
    "Offset": 34519,
    "Ġuniversally": 26208,
    "ĠMonster": 12635,
    "Ġpepp": 49038,
    "Ġsparkling": 39072,
    "ĠToast": 46831,
    "ebin": 23497,
    "Ess": 29508,
    "Ġ``": 7559,
    "ĠFederation": 11937,
    "ALE": 21358,
    "Ġserum": 20502,
    "combe": 49325,
    "Ġgeneration": 5270,
    "Ġgamer": 26713,
    "÷": 179,
    "ĠKickstarter": 14437,
    "Ġspend": 4341,
    "ĠCologne": 34923,
    "ĠDES": 22196,
    "STDOUT": 36886,
    "Ġbug": 5434,
    "ĠHand": 7157,
    "ĠEck": 45232,
    "orians": 45825,
    "Ġ6000": 39064,
    "Ġpies": 47199,
    "Ġutopian": 49678,
    "Ġclassical": 15993,
    "workers": 22896,
    "ĠNGOs": 32507,
    "Ġnight": 1755,
    "Ġsliding": 22292,
    "Ġrept": 28761,
    "Ġundermine": 16637,
    "Ġresh": 27179,
    "Ġcustomer": 6491,
    "Ġattic": 46113,
    "aria": 10312,
    "ĠDOS": 43036,
    "Ġfostering": 44209,
    "Ti": 40533,
    "Ġtriglycer": 47937,
    "ĠVag": 37203,
    "ribune": 44130,
    "ography": 4867,
    "ĠAlzheimer": 22434,
    "Jewish": 28240,
    "Ġstability": 10159,
    "ĠHannibal": 41949,
    "Ġbullies": 42677,
    "Ġby": 416,
    "watch": 8340,
    "Ġreply": 10971,
    "Truth": 38782,
    "Ġfixed": 5969,
    "out": 448,
    "onel": 26261,
    "Tesla": 41351,
    "ĠRecre": 30009,
    "ĠMutant": 35319,
    "Ġprotestors": 36915,
    "ishers": 39116,
    "Ġachievable": 47729,
    "Ġtbsp": 36367,
    "Ġrestraint": 24596,
    "Ġcompile": 17632,
    "Ġstriving": 34260,
    "Ġcooler": 19346,
    "Ġoffered": 4438,
    "ĠConstitution": 7965,
    "ĠSatanic": 41518,
    "Numbers": 49601,
    "igration": 4254,
    "Request": 18453,
    "B": 33,
    "Ġsubparagraph": 24077,
    "Ġyelling": 22187,
    "uploads": 39920,
    "Ġexists": 7160,
    "Ġauthentic": 16425,
    "Ġsponsors": 18073,
    "ĠBrock": 20501,
    "Help": 22087,
    "Ġguides": 17555,
    "ĠAAP": 31518,
    "Ġsideways": 35303,
    "immigration": 47620,
    "ĠSydney": 11852,
    "Ġutility": 10361,
    "à¤": 11976,
    "Ġdeviations": 47060,
    "ĠHumanity": 35629,
    "ĠHume": 45485,
    "ocrat": 35128,
    "Ġweakness": 10453,
    "ĠAds": 47442,
    "ĠACTIONS": 23054,
    "Ġnem": 36945,
    "ĠProductions": 25315,
    "Ġshirts": 20858,
    "Ġsurrounded": 11191,
    "Ġbloom": 29955,
    "Ġunsustainable": 39554,
    "Contin": 17875,
    "ĠDistrict": 5665,
    "ĠSau": 23167,
    "Ġfranc": 46754,
    "ĠMerc": 12185,
    "ĠCommander": 13353,
    "ĠPROG": 38688,
    "404": 26429,
    "ĠOracle": 18650,
    "nt": 429,
    "Ġincremental": 29497,
    "Ġwitch": 16365,
    "Ġy": 331,
    "ĠComplete": 13248,
    "Ġemerge": 14740,
    "Ġvolunteering": 41434,
    "ĠVerb": 49973,
    "Ġopacity": 45912,
    "ulnerable": 38828,
    "ĠCompetitive": 47665,
    "pred": 28764,
    "ĠHit": 7286,
    "Ġgrazing": 40470,
    "Ġsubsidiary": 22347,
    "render": 13287,
    "ĠGregory": 20653,
    "Ġilliter": 45029,
    "ĠHun": 5900,
    "ĠMachine": 10850,
    "Relations": 47117,
    "utm": 26841,
    "Ġrecommended": 7151,
    "Ġtricked": 42608,
    "Ġmagnification": 44120,
    "Ġfollows": 5679,
    "ĠKathy": 33726,
    "ĠFinally": 9461,
    "hematic": 23380,
    "ĠJaime": 38028,
    "Ġascert": 48818,
    "igating": 29129,
    "ĠPin": 13727,
    "andals": 23819,
    "ĠMalaysian": 30031,
    "ĠMets": 26053,
    "Ġprevailed": 34429,
    "ĠNorwegian": 22158,
    "Ġbrilliantly": 37928,
    "Ġhard": 1327,
    "emb": 24419,
    "Ġenrol": 34311,
    "Ġpositives": 38548,
    "Ġhearts": 11954,
    "Ġhistorical": 6754,
    "ĠYep": 40810,
    "Ġneuron": 43164,
    "Ġhunger": 16460,
    "ĠGr": 1902,
    "ĠPesh": 39654,
    "ĠChamber": 15840,
    "Ġhilar": 17570,
    "Ġhazardous": 26082,
    "ĠCivilization": 31755,
    "ULT": 16724,
    "ĠStreets": 27262,
    "Ġnatural": 3288,
    "cill": 20346,
    "Ġsporting": 17702,
    "rophe": 22599,
    "Ġdescent": 18598,
    "Ġdisqualified": 40650,
    "dos": 37427,
    "Ġwounding": 40942,
    "indle": 42343,
    "Ġsection": 2665,
    "cour": 43220,
    "Ġornament": 45618,
    "561": 47915,
    "Ġugly": 13400,
    "OTE": 23051,
    "Ġattend": 5262,
    "ĠCameron": 10821,
    "forces": 27087,
    "ĠCoffee": 19443,
    "atin": 10680,
    "ĠMalaysia": 15336,
    "Ġkey": 1994,
    "Ġintervention": 9572,
    "ĠCM": 16477,
    "ĠIntegrated": 35432,
    "Ġmascul": 18498,
    "unks": 14125,
    "ĠHier": 36496,
    "ĠPacific": 8211,
    "ando": 25440,
    "ãĤī": 36853,
    "Ġfascist": 28342,
    "Ġprized": 37768,
    "repair": 49932,
    "Ġperpendicular": 47190,
    "059": 46712,
    "phant": 33959,
    "angles": 27787,
    "Ġinsert": 7550,
    "immers": 36904,
    "Whit": 43617,
    "ĠCadillac": 46089,
    "interface": 39994,
    "ĠNile": 38063,
    "afi": 19910,
    "Stra": 41347,
    "Shift": 33377,
    "pport": 4926,
    "ĠWalton": 34468,
    "console": 41947,
    "Ġceremony": 10542,
    "ĠIP": 6101,
    "Ġcongreg": 30663,
    "Queen": 32466,
    "ĠStrongh": 38653,
    "jen": 48796,
    "Ġpixels": 17848,
    "Ġtriggers": 20022,
    "odore": 25102,
    "ibo": 26762,
    "Aud": 16353,
    "ĠHouses": 34336,
    "Ġpracticed": 19893,
    "ieri": 29864,
    "ĠPROV": 36592,
    "Ġinclination": 36793,
    "orthy": 18906,
    "bia": 23339,
    "Ġdh": 34590,
    "437": 43284,
    "creator": 45382,
    "ĠChevron": 50083,
    "erm": 7780,
    "ĠOUT": 16289,
    "Ġarchitectures": 45619,
    "ĠDice": 34381,
    "Ġmo": 6941,
    "rates": 9700,
    "SUP": 40331,
    "Ġabortion": 7950,
    "ĠTracks": 42259,
    "533": 44994,
    "byn": 14929,
    "Ġdeclaring": 18684,
    "Ġrestruct": 27596,
    "digital": 34725,
    "Ġattorneys": 14449,
    "Ġdurable": 20923,
    "ĠAluminum": 35859,
    "Ġstandard": 3210,
    "Ġloan": 8063,
    "Ġideologies": 35871,
    "oys": 19417,
    "Documents": 38354,
    "Ġfootnote": 38512,
    "chains": 38861,
    "Sword": 43117,
    "Ġretire": 8058,
    "Ġprices": 4536,
    "Ġmenstrual": 37230,
    "aut": 2306,
    "Ġimmune": 10900,
    "Ġoperatives": 27269,
    "dt": 28664,
    "Ġframeworks": 29251,
    "lene": 29466,
    "ĠHunts": 31926,
    "Ġatro": 38324,
    "ĠDS": 17400,
    "Ġhighs": 28227,
    "Bl": 3629,
    "Ġbul": 4807,
    "æī": 33699,
    "Earlier": 13689,
    "Ġmilitias": 28195,
    "Redditor": 34832,
    "Ġâĸº": 34933,
    "Ġapprehended": 41979,
    "ĠSaudi": 7420,
    "BIL": 19676,
    "uctions": 20847,
    "ĠEX": 7788,
    "uilt": 21955,
    "Ġprestigious": 23566,
    "Ġunidentified": 27022,
    "Ġdevoid": 34065,
    "ĠFear": 16132,
    "Ġillum": 16116,
    "ĠArabian": 33081,
    "NE": 12161,
    "Ġfundamentally": 17640,
    "Ġ311": 35592,
    "Ġderegulation": 50202,
    "industrial": 31130,
    "Ġweeks": 2745,
    "Ġsnapshot": 27479,
    "usher": 34055,
    "Ġvehemently": 42327,
    "Ġ161": 27829,
    "Ġhaz": 11595,
    "Äĩ": 38325,
    "ako": 25496,
    "ĠSentinel": 26716,
    "Ġreminders": 40687,
    "801": 41531,
    "267": 25674,
    "enta": 29188,
    "mini": 45313,
    "ĠSeller": 46555,
    "manship": 25428,
    "raw": 1831,
    "Ġ07": 8753,
    "upper": 45828,
    "achy": 35586,
    "inducing": 48016,
    "Ġdemographics": 30084,
    "arians": 13517,
    "Ġlur": 20605,
    "remember": 38947,
    "Ġnarration": 45127,
    "Ġmicrowave": 27000,
    "croft": 36714,
    "aday": 43593,
    "Ġdesigned": 3562,
    "Ġscam": 19126,
    "Ġinventive": 47602,
    "Ġposts": 6851,
    "Ġ325": 29524,
    "Ġtextile": 45293,
    "Ġdiamonds": 30984,
    "ĠRect": 48599,
    "Ġart": 1242,
    "Ġexpands": 27513,
    "Ġdreamed": 27947,
    "ĠNieto": 49783,
    "Ġmerchants": 21779,
    "Ġ\"\\": 37082,
    "Ġ{{": 22935,
    "rimp": 23750,
    "Coach": 40677,
    "Ġpacked": 11856,
    "aily": 3079,
    "ĠFO": 11895,
    "Ġlending": 20983,
    "Ġbends": 44370,
    "Trade": 35965,
    "487": 35133,
    "Ġloads": 15989,
    "Ġrental": 14447,
    "writer": 16002,
    "ÃŃ": 8836,
    "Ġlace": 35938,
    "Ġdroid": 46748,
    "Central": 30645,
    "no": 3919,
    "isdom": 9350,
    "icult": 2249,
    "width": 10394,
    "Ġdefenses": 18370,
    "Ġbattalion": 36328,
    "ĠCosponsors": 41868,
    "elt": 2120,
    "mor": 4491,
    "Ġthefts": 49980,
    "Ġdiminished": 23476,
    "ua": 6413,
    "Ġadmitted": 6848,
    "Ġlanguage": 3303,
    "Ġdefend": 4404,
    "ef": 891,
    "Jean": 38248,
    "Ġspecify": 11986,
    "Ġ].": 20740,
    "Ġacquisition": 12673,
    "both": 16885,
    "Ġ451": 49356,
    "Ġdeny": 10129,
    "Ġrepairs": 20097,
    "ĠCulture": 17346,
    "holders": 10476,
    "ĠDietary": 40767,
    "Ġswinging": 25635,
    "Written": 25354,
    "Ġ\"{": 45144,
    "\":\"": 2404,
    "het": 3202,
    "Not": 3673,
    "Ġ43": 5946,
    "iform": 6933,
    "Ġformal": 8766,
    "Ġreportedly": 7478,
    "essed": 6676,
    "Ġupward": 18644,
    "Ġmetres": 18985,
    "Ġsometimes": 3360,
    "Ġcontributors": 20420,
    "ĠMaj": 12390,
    "Everybody": 28172,
    "ĠRFC": 30978,
    "Ġshack": 32772,
    "hers": 7084,
    "ĠMonths": 37461,
    "620": 38850,
    "voice": 38888,
    "ussen": 35951,
    "Ġpopcorn": 38914,
    "âĸĴ": 40516,
    "Ġirrational": 25086,
    "ĠMem": 4942,
    "ĠNames": 28531,
    "72": 4761,
    "Ġcriticisms": 25094,
    "ĠPhilip": 14576,
    "ibal": 21342,
    "irement": 24615,
    "Myth": 41444,
    "Ġcontentious": 27154,
    "Ġnegativity": 45074,
    "Ġbehest": 49672,
    "ĠAlternate": 42400,
    "ĠLang": 16332,
    "George": 20191,
    "ICT": 18379,
    "Ġforums": 14216,
    "ĠVI": 13889,
    "ĠResist": 36136,
    "Ġblur": 23671,
    "Perfect": 36635,
    "Ġgrams": 16379,
    "Deb": 16587,
    "ormal": 6636,
    "ĠIndonesia": 16256,
    "ĠSeriously": 27777,
    "Ġfilters": 16628,
    "ĠInvestment": 20877,
    "Ġrave": 46242,
    "Ġuniform": 8187,
    "Wiki": 32603,
    "Ġcapable": 6007,
    "ĠArena": 10937,
    "yt": 20760,
    "ĠNom": 21198,
    "BI": 3483,
    "ĠBye": 47843,
    "Downloadha": 41551,
    "ĠSmithsonian": 40131,
    "Ġnutshell": 43875,
    "isa": 9160,
    "YN": 40760,
    "\"},": 25719,
    "Ġrescuing": 48329,
    "ĠGarcia": 18555,
    "Limit": 39184,
    "ĠMagical": 22294,
    "Ġworld": 995,
    "crete": 38669,
    "ĠBY": 11050,
    "Ġreally": 1107,
    "FO": 6080,
    "Ġemphas": 6661,
    "ĠHort": 31693,
    "ion": 295,
    "ĠReilly": 47879,
    "644": 29173,
    "sector": 34914,
    "ĠHelena": 42916,
    "ĠMcMahon": 33984,
    "Ġunite": 24558,
    "Ġcool": 3608,
    "ĠEntertainment": 11058,
    "Ġwaitress": 44511,
    "ĠIzan": 35144,
    "ĠFDR": 47700,
    "owski": 12079,
    "FIL": 46700,
    "Ġmir": 5720,
    "Ġreached": 4251,
    "Production": 35027,
    "Ġceleb": 10624,
    "ĠEther": 20017,
    "Ġpre": 662,
    "Ġtra": 1291,
    "ĠInstallation": 32588,
    "ĠKlux": 45092,
    "ulsion": 15204,
    "Ġcalculations": 16765,
    "ĠVenus": 21094,
    "ĠWhat": 1867,
    "ĠRutherford": 49767,
    "ĠCars": 25277,
    "percent": 25067,
    "auder": 29233,
    "ĠCortana": 45822,
    "ĠTitanic": 41184,
    "Ġresorts": 43017,
    "Ġcounterparts": 16054,
    "gger": 26679,
    "irmed": 15491,
    "Ġwinding": 28967,
    "Ġsemi": 10663,
    "prot": 11235,
    "cing": 2259,
    "Micro": 13031,
    ".</": 25970,
    "Ġimpunity": 37610,
    "Sab": 39646,
    "ĠS": 311,
    "ĠAnother": 6023,
    "Ġspree": 37386,
    "''''": 39115,
    "ĠWhale": 44772,
    "Ġassigns": 46974,
    "ItemThumbnailImage": 39177,
    "Ġcab": 16212,
    "Ġexasper": 41851,
    "ender": 2194,
    "Ġbarg": 12828,
    "ĠJays": 23288,
    "Ġneuronal": 36347,
    "pires": 17833,
    "ĠLesbian": 43797,
    "Ġnoodles": 31103,
    "Controller": 22130,
    "Justin": 33229,
    "fred": 39193,
    "ĠColumb": 6845,
    "Ġanyway": 6949,
    "Ġnetworks": 7686,
    "Ġexpense": 10907,
    "since": 20777,
    "ĠLug": 31541,
    "ĠFrancois": 40419,
    "'';": 44648,
    "Ġinappropriately": 49190,
    "Ġ388": 43550,
    "Elsewhere": 49374,
    "Ġuneven": 30690,
    "Ġlabor": 4827,
    "Ġconservative": 5940,
    "Ġdefaults": 26235,
    "ĠDorothy": 40349,
    "Ġfury": 26206,
    "Ġsay": 910,
    "igg": 6950,
    "Ġmaxim": 12991,
    "Ġadventures": 17545,
    "288": 25270,
    "sing": 12215,
    "ĠArchangel": 28811,
    "ĠFeb": 3158,
    "ĠClancy": 46255,
    "Ġdispatch": 27965,
    "quer": 10819,
    "Ġleaflets": 48409,
    "ĠNirvana": 49923,
    "ĠGuard": 4932,
    "headed": 15353,
    "ĠMist": 15078,
    "Ġgener": 1152,
    "gone": 21260,
    "ĠHaw": 6091,
    "riger": 18096,
    "ĠDT": 24311,
    "Ġothers": 1854,
    "Ġtuned": 16524,
    "Ġnic": 9200,
    "earances": 35630,
    "Ġleftist": 28318,
    "displayText": 31536,
    "ĠCommodore": 48808,
    "ãģ§": 30640,
    "Ġyacht": 43207,
    "ownt": 6887,
    "ĠAuction": 36071,
    "Ġwarmed": 38794,
    "Ġgalvan": 42170,
    "ĠRivals": 42307,
    "ĠHunter": 9055,
    "]).": 35944,
    "ĠRichard": 6219,
    "earable": 40816,
    "Ġneoliberal": 31972,
    "offensive": 45055,
    "Ġjournalists": 9046,
    "Ġsubstr": 47294,
    "Com": 5377,
    "Ġdiagnosis": 13669,
    "ĠIbrahim": 30917,
    "Alert": 36420,
    "ĠFt": 45231,
    "ingo": 32735,
    "Ġexhausted": 19064,
    "133": 16945,
    "Ġeffective": 4050,
    "Obama": 15948,
    "Ġdispens": 18905,
    "ĠPilot": 21697,
    "sbm": 32310,
    "Ġ316": 34131,
    "cart": 26674,
    "ainment": 37091,
    "Ġ1992": 9768,
    "ĠElections": 24473,
    "Ġlesbians": 34210,
    "ĠPerhaps": 8673,
    "ĠKendrick": 38643,
    "ĠSHAR": 39225,
    "Kat": 25881,
    "Ġanyone": 2687,
    "Ġmeters": 10700,
    "Ġegalitarian": 41469,
    "à©": 43297,
    "quila": 43652,
    "FH": 44602,
    "DoS": 46498,
    "Ġ:-)": 47226,
    "club": 18664,
    "Ã¦": 21241,
    "285": 26279,
    "Ġreside": 26412,
    "IZ": 14887,
    "Ġail": 31907,
    "379": 29088,
    "ĠRespond": 33556,
    "Ġdisclosing": 39916,
    "ideon": 42381,
    "ZE": 21211,
    "Ġromance": 19661,
    "onis": 43524,
    "Ġvaccinated": 37663,
    "Ġdexterity": 50003,
    "leground": 28272,
    "Ġverse": 18527,
    "Ġincon": 15861,
    "lance": 23215,
    "Ġpounds": 8059,
    "Ġplaque": 35127,
    "ĠBigfoot": 50120,
    "Ġforeign": 3215,
    "Ġramps": 42097,
    "Ġlandowners": 44868,
    "opped": 38333,
    "Ġexpanded": 9902,
    "Ġadvertisements": 25210,
    "Ġminimalist": 44693,
    "Ġenlist": 33858,
    "Metal": 36790,
    "Ġ420": 28262,
    "Ġpunitive": 32952,
    "ĠDairy": 46579,
    "ĠInt": 2558,
    "Ġbutter": 9215,
    "Ġbrings": 6774,
    "Ġdeceptive": 34036,
    "BO": 8202,
    "Ġpreferable": 33887,
    "Ġtapes": 23695,
    "Ġsoar": 48701,
    "ĠCPI": 42103,
    "iland": 40855,
    "ĠâĪ¼": 42783,
    "Ġobserving": 21769,
    "iny": 3541,
    "Ġgrey": 13791,
    "eteen": 34026,
    "Ġpython": 21015,
    "Ġ));": 29226,
    "bone": 15992,
    "Ġoverload": 31754,
    "yright": 4766,
    "Ġboats": 16659,
    "Ġcombines": 21001,
    "ĠTeddy": 29345,
    "ĠMadison": 14909,
    "ifacts": 37199,
    "ĠGenetics": 43574,
    "ĠEC": 13182,
    "ĠMutual": 48807,
    "Ġmyst": 21619,
    "463": 38380,
    "ĠTorah": 33366,
    "Ġcycles": 16006,
    "ĠBET": 38651,
    "Ġprevailing": 26602,
    "Ġdispersed": 34646,
    "ãĥª": 12675,
    "Ġculturally": 30573,
    "Ġlarge": 1588,
    "Ġmodels": 4981,
    "ĠGive": 13786,
    "Ġacted": 13134,
    "ĠGreek": 8312,
    "PDATE": 14341,
    "iably": 18745,
    "Ġrenewed": 16434,
    "dest": 16520,
    "ĠZimmer": 18926,
    "Wow": 22017,
    "ota": 4265,
    "PL": 6489,
    "Ġpseudo": 24543,
    "cakes": 37263,
    "Were": 35653,
    "ertation": 42245,
    "Spanish": 43584,
    "Ġaffect": 2689,
    "ĠDarth": 31152,
    "ĠMart": 3981,
    "Ġexplorers": 45531,
    "Ġtend": 4327,
    "stuff": 41094,
    "pn": 21999,
    "ĠAs": 1081,
    "ĠTony": 8832,
    "alo": 7335,
    "Ġdisk": 11898,
    "ĠJaguars": 28392,
    "ĠToad": 42616,
    "Ġrecycle": 48914,
    "itiz": 3029,
    "omers": 21499,
    "ĠSenior": 14017,
    "ossibility": 43691,
    "ĠNegative": 36183,
    "ĠDigest": 44255,
    "Seriously": 42338,
    "ĠShark": 28616,
    "gey": 39608,
    "Ġprominence": 31198,
    "STRUCT": 46126,
    "Ġsystemic": 21971,
    "Common": 17227,
    "Ġmetrics": 20731,
    "Ġdumps": 45514,
    "ĠDisc": 8444,
    "zech": 15356,
    "Ġdb": 20613,
    "ĠPred": 14322,
    "ĠDra": 12458,
    "Ġpesticides": 27482,
    "opian": 37548,
    "ĠLeia": 41212,
    "ĠLTE": 28519,
    "ĠMoody": 32136,
    "Ġretrieved": 29517,
    "2011": 9804,
    "Ġfoothold": 48271,
    "ĠTitus": 49207,
    "Ġforgetting": 32012,
    "Ġhopefully": 11481,
    "Ġno": 645,
    "Ultimately": 27212,
    "glas": 14391,
    "Ġtet": 28408,
    "Ġslice": 16416,
    "Ġ650": 22626,
    "Ġamen": 29448,
    "auld": 30406,
    "Poll": 39176,
    "ze": 2736,
    "otic": 6210,
    "cule": 23172,
    "Ġnominal": 26934,
    "Ġdisciplines": 29861,
    "ĠCLS": 39241,
    "agged": 14655,
    "ĠKi": 21927,
    "Ġcured": 30703,
    "ifference": 33012,
    "Decre": 43198,
    "¹": 117,
    "ĠMark": 2940,
    "ocity": 11683,
    "772": 43571,
    "ĠIPS": 37632,
    "ĠAlam": 41514,
    "Ġinconsistent": 18326,
    "owe": 47097,
    "kin": 5116,
    "Ġrebell": 17203,
    "Ġcr": 1067,
    "wood": 3822,
    "ĠUSB": 8450,
    "vance": 19259,
    "Ġbranding": 24150,
    "...)": 23029,
    "Ġconveyed": 33348,
    "Ġempowering": 35917,
    "756": 38219,
    "Ġstated": 5081,
    "Ġdemonstration": 13646,
    "Ġlat": 3042,
    "Ġexposures": 32185,
    "initial": 36733,
    "ĠDSM": 37297,
    "stan": 14192,
    "Ġsing": 1702,
    "ĠSSH": 33825,
    "brate": 40804,
    "âĢİ": 48261,
    "ĠGrimes": 49462,
    "phil": 28864,
    "Ġrover": 35761,
    "Ġtelesc": 18400,
    "Ġfamiliar": 5385,
    "Ġ142": 25181,
    "ĠExhibit": 35880,
    "Ġapproval": 7546,
    "Ġbip": 14141,
    "onsequ": 40819,
    "Ġperfected": 42155,
    "ĠZup": 45672,
    "ĠeBook": 46566,
    "ĠTwain": 49824,
    "ccording": 2941,
    "ĠNFL": 5134,
    "llers": 13802,
    "ĠRust": 17103,
    "ĠVenture": 35686,
    "ĠBuffalo": 14905,
    "ĠMasters": 15812,
    "ĠWisconsin": 9279,
    "Ġlad": 9717,
    "Ġwallets": 29608,
    "ĠHubble": 40455,
    "GROUND": 46025,
    "Ġgenuine": 8768,
    "Ġmidday": 47168,
    "Ġexplains": 6688,
    "Ġdevote": 24103,
    "Ġsharing": 7373,
    "ochet": 49579,
    "Ġlikelihood": 14955,
    "ates": 689,
    "Ġatrocities": 27817,
    "Ġtoolbar": 50149,
    "?ãĢį": 42943,
    "ĠBarnes": 21335,
    "Ġdedicate": 39383,
    "Ġsignalling": 45829,
    "ifling": 38966,
    "åľ": 28839,
    "ĠIngredients": 33474,
    "Ġmedd": 26551,
    "trust": 38087,
    "Ġprohib": 6221,
    "Ġnarrowly": 26167,
    "ĠInfrastructure": 33709,
    "ALT": 31429,
    "Ġairlines": 26225,
    "into": 20424,
    "ĠHabit": 41950,
    "Ġtwent": 21849,
    "Ġinherited": 19552,
    "Ġchap": 28022,
    "Ġembrace": 12553,
    "culosis": 38767,
    "ĠTTL": 42654,
    "Ctrl": 40069,
    "Ġcred": 2600,
    "Ġhoped": 10719,
    "Ã®": 34803,
    "ĠReplacement": 43986,
    "Ġrobe": 33192,
    "Ġsculpture": 26924,
    "Ġposes": 17313,
    "Ġchaotic": 23458,
    "502": 35126,
    "ĠRomantic": 49039,
    "Ġrosters": 48803,
    "ĠBT": 22205,
    "ĠLenn": 28423,
    "Ġmemes": 32905,
    "572": 48724,
    "Ġtestifying": 47952,
    "equ": 4853,
    "FER": 24302,
    "Ġrelic": 26341,
    "ĠADA": 46460,
    "Ġjail": 7356,
    "Ġstru": 2874,
    "Ġconfirmed": 4999,
    "Android": 25934,
    "syn": 28869,
    "developed": 33082,
    "ĠConvert": 38240,
    "951": 50119,
    "ĠAmp": 50161,
    "okes": 3369,
    "Focus": 34888,
    "Ġammon": 34946,
    "Ġassassination": 18898,
    "ĠTuesday": 3431,
    "Ġtorture": 11543,
    "Ġ176": 26937,
    "Ġlofty": 37248,
    "comings": 30715,
    "ake": 539,
    "Ī": 230,
    "Ġcausal": 26558,
    "HER": 16879,
    "Ġchilling": 28010,
    "Ġfa": 24685,
    "Sim": 8890,
    "Ġcontiguous": 48627,
    "ibe": 32438,
    "ĠPLEASE": 37795,
    "ilus": 35815,
    "Ġpacking": 24157,
    "055": 47838,
    "Ġmomentarily": 40957,
    "Ġglimpse": 19350,
    "Lower": 31426,
    "ĠPurpose": 32039,
    "Ġaudible": 35282,
    "Ġindicate": 7603,
    "ĠInteg": 15995,
    "ĠTent": 30765,
    "ourced": 30555,
    "Ġfascinated": 30103,
    "day": 820,
    "ĠSak": 13231,
    "ĠPul": 21624,
    "atron": 23484,
    "andestine": 35887,
    "Ġmonastery": 38139,
    "Ġmillennium": 39210,
    "ĠAchievements": 49496,
    "Ġnurs": 11051,
    "Ġpaused": 24487,
    "fields": 25747,
    "ĠGPUs": 32516,
    "otyp": 17183,
    "ITCH": 31949,
    "ĠEntry": 21617,
    "Ġslick": 29395,
    "Ġread": 1100,
    "Ġcone": 27763,
    "Ġbacterial": 23462,
    "Ġpoke": 22620,
    "ĠPeg": 31084,
    "Krist": 40756,
    "Ġbranching": 49526,
    "ush": 1530,
    "ĠFin": 4463,
    "ang": 648,
    "Ġstrike": 5587,
    "Ġstat": 1185,
    "econom": 13926,
    "tha": 12898,
    "ĠCEOs": 32938,
    "Ġwel": 5029,
    "ĠCommand": 9455,
    "raf": 32188,
    "ĠEDITION": 39219,
    "Ġamd": 39971,
    "ocracy": 17818,
    "inyl": 19754,
    "ĠOver": 3827,
    "Ġ32": 3933,
    "acked": 6021,
    "Ġsmash": 24273,
    "UX": 31235,
    "uits": 15379,
    "Ġsynthetic": 18512,
    "lez": 36858,
    "ĠSuarez": 39992,
    "Ġ338": 40736,
    "Ġlimbo": 46008,
    "fixes": 42624,
    "ĠGalactic": 23509,
    "atom": 37696,
    "Ġsupp": 802,
    "aml": 43695,
    "best": 13466,
    "Ġproblem": 1917,
    "Ġattacked": 7384,
    "Ġwilling": 4684,
    "iere": 13235,
    "LAN": 25697,
    "Ġparaph": 38624,
    "Ġ\"(": 30629,
    "ĠChandler": 28346,
    "ĠFranchise": 49924,
    "aez": 47246,
    "Ġsolution": 4610,
    "oice": 2942,
    "Exactly": 47173,
    "Ġbuyers": 14456,
    "ĠHole": 24478,
    "tel": 37524,
    "ogi": 44381,
    "ĠAlberta": 15555,
    "Ġinsider": 25851,
    "Ġblaze": 31259,
    "ĠLithuania": 31295,
    "lain": 34277,
    "ĠRudy": 37602,
    "asant": 8775,
    "Ġstature": 32600,
    "assed": 21390,
    "OSP": 47053,
    "Ġconfidential": 15279,
    "266": 25540,
    "Ġimitation": 40260,
    "Ġpengu": 38373,
    "ĠHemisphere": 42811,
    "Ġsavings": 10653,
    "oso": 28213,
    "Stud": 13007,
    "Ġlowly": 49587,
    "Ġslurs": 44981,
    "Ġdecades": 4647,
    ");": 1776,
    "thal": 11669,
    "ĠPear": 11830,
    "ĠDom": 9666,
    "ĠClicker": 44051,
    "ĠGetty": 7136,
    "ĠBriggs": 44630,
    "ĠAngry": 31900,
    "ĠKenobi": 46217,
    "Ġtroll": 13278,
    "ĠTorch": 34868,
    "ĠjQuery": 37420,
    "âĦ¢": 8151,
    "ĠCompton": 47062,
    "Ġparasites": 36643,
    "ĠSlov": 26613,
    "rang": 36985,
    "ĠCodes": 44380,
    "Ġinvestigate": 9161,
    "ĠFathers": 30969,
    "Ġaborted": 46847,
    "ĠCass": 14154,
    "Interview": 39945,
    "Ħ¢": 8008,
    "Ġcapac": 18457,
    "ĠPetersburg": 27051,
    "Ġmerge": 20121,
    "MT": 13752,
    "fx": 21373,
    "ĠNIC": 45593,
    "Ġrecovering": 20222,
    "User": 12982,
    "Ġlewd": 45179,
    "itement": 12559,
    "Ġmaybe": 3863,
    "Ġtracing": 35328,
    "Available": 10493,
    "85": 5332,
    "CA": 8141,
    "Ġlump": 23844,
    "ĠNBN": 40841,
    "reviewed": 32974,
    "rehend": 23979,
    "ĠBai": 40750,
    "Ġgastro": 33131,
    "ĠWeekend": 30537,
    "Ġobservational": 40118,
    "numbered": 35565,
    "upon": 27287,
    "ural": 1523,
    "bow": 8176,
    "ĠOrleans": 12255,
    "antle": 16941,
    "ĠÙĪ": 42092,
    "Ġmafia": 44371,
    "Ġadultery": 38713,
    "\"}],\"": 42785,
    "Ġheter": 14445,
    "Ġhostile": 12524,
    "ĠTogether": 17083,
    "Ġpolitical": 1964,
    "Ġcolonialism": 48359,
    "node": 17440,
    "ĠOilers": 35004,
    "Ġcogn": 8866,
    "ĠSnow": 7967,
    "ĠSharp": 22835,
    "Ġdebit": 30977,
    "ay": 323,
    "Ġinitially": 7317,
    "Ġcere": 6736,
    "ĠEA": 19814,
    "ĠDish": 33275,
    "Ġbenefiting": 39125,
    "meat": 41495,
    "Ġdiscovered": 5071,
    "Ġour": 674,
    "Ġaway": 1497,
    "Ġgathered": 9272,
    "VAL": 23428,
    "adder": 26676,
    "ET": 2767,
    "ĠGreene": 28132,
    "Ġdisgusting": 23374,
    "ãĤ¦": 16165,
    "esthes": 29678,
    "Ġescapes": 32695,
    "arcer": 17649,
    "Ton": 35416,
    "Ġrapists": 38466,
    "edar": 44226,
    "icc": 44240,
    "ĠNode": 19081,
    "Ġsucc": 17458,
    "Ġstip": 22111,
    "Ġrelentlessly": 37952,
    "âĢ¦âĢ¦âĢ¦âĢ¦âĢ¦âĢ¦âĢ¦âĢ¦": 29146,
    "Ġ396": 48758,
    "Ġremark": 6919,
    "Ġany": 597,
    "omas": 16911,
    "ĠOv": 46941,
    "ĠSwed": 7289,
    "tell": 33331,
    "Ġacquitted": 35497,
    "proxy": 36436,
    "ĠCounsel": 21023,
    "Ġcount": 954,
    "Ġ57": 7632,
    "ĠWilliam": 3977,
    "Sir": 22788,
    "ĠGD": 27044,
    "Ġunderestimated": 36190,
    "Ġhuge": 3236,
    "Ġhumans": 5384,
    "Ġembarrassment": 24655,
    "ĠYork": 1971,
    "ubs": 23161,
    "amel": 17983,
    "ĠBaseType": 31783,
    "surprisingly": 41199,
    "oÄŁ": 45492,
    "avery": 12447,
    "ĠRG": 34359,
    "ĠUnified": 42225,
    "Ġtradem": 12677,
    "eder": 5702,
    "Ġexports": 15319,
    "grade": 9526,
    "Charlie": 37136,
    "ĠEff": 27848,
    "Ġsemic": 39290,
    "Ġtroublesome": 35778,
    "Ġgastrointestinal": 40887,
    "227": 24403,
    "Ġtapped": 22499,
    "Ġhurting": 21530,
    "adium": 6271,
    "oria": 7661,
    "ĠCeltic": 27986,
    "Ġvandal": 26271,
    "requently": 37971,
    "hat": 5183,
    "Ġgrab": 5552,
    "Ġstimulus": 19819,
    "recogn": 26243,
    "Ġnascent": 45419,
    "ĠBALL": 46433,
    "Ġdraconian": 33483,
    "Ġaid": 6133,
    "cellence": 19801,
    "Ġbins": 41701,
    "ierce": 9798,
    "Ġundrafted": 44178,
    "ulner": 5697,
    "Ġremem": 8572,
    "Ġpoetry": 19518,
    "Save": 16928,
    "Ġproposes": 26017,
    "Ġconcessions": 26739,
    "Ġunfit": 39053,
    "pb": 40842,
    "ĠGary": 10936,
    "bat": 8664,
    "ĠScientology": 24990,
    "ĠMoj": 40120,
    "instead": 38070,
    "ĠBravo": 38990,
    "Ġinternationally": 19765,
    "ĠLars": 31239,
    "ĠDo": 2141,
    "Ġvisiting": 10013,
    "Ġtweaks": 26957,
    "ĠAMER": 32617,
    "hemer": 39557,
    "ĠDPR": 41176,
    "ĠPlanetary": 43800,
    "ĠBears": 15682,
    "LINE": 24027,
    "Ġconstitute": 15613,
    "Ġlif": 3868,
    "oll": 692,
    "^": 61,
    "ĠRober": 4109,
    "src": 10677,
    "Ġassistant": 8796,
    "ĠCharleston": 26070,
    "agogue": 32238,
    "ĠZhu": 33144,
    "Ġcrowded": 18012,
    "set": 2617,
    "apor": 12687,
    "ĠBatt": 12350,
    "Ġnotorious": 18192,
    "BILITIES": 49516,
    "Ġcounty": 7968,
    "Ġspreads": 26779,
    "Ġintroduce": 10400,
    "Ġcompulsory": 31967,
    "Ġtresp": 29723,
    "Ġrefunds": 36903,
    "ĠCertified": 36054,
    "liners": 34380,
    "ĠHelic": 48574,
    "Ġcondemnation": 28215,
    "Ing": 27682,
    "Quantity": 31208,
    "Ġcrafting": 21671,
    "ohm": 34028,
    "Ġ93": 10261,
    "Ġquantify": 36336,
    "ĠHai": 36876,
    "ĠFISA": 44073,
    "Ġolds": 44979,
    "ĠBeg": 47479,
    "ĠPak": 6162,
    "Ġdisabled": 10058,
    "Ġraided": 31158,
    "Ġelectro": 15206,
    "ĠSky": 5274,
    "remlin": 17244,
    "Ġpuppy": 26188,
    "ĠFlame": 11981,
    "Ġpublished": 3199,
    "750": 15426,
    "Plan": 20854,
    "Letter": 45708,
    "312": 27970,
    "Ġentrants": 49117,
    "Ġpharmacies": 49661,
    "ĠNest": 21420,
    "Ġbulls": 40317,
    "Ġhappen": 1645,
    "nesday": 3462,
    "Ġseller": 18583,
    "Ġfrustration": 14285,
    "Debug": 27509,
    "Ġmicrobi": 24559,
    "ĠFlags": 34771,
    "ĠSecond": 5498,
    "Ġexplicitly": 11777,
    "Following": 14291,
    "erie": 18287,
    "ĠBuffett": 36611,
    "Ġ540": 38190,
    "Ġducks": 39694,
    "Ġtension": 12097,
    "Ġintending": 38939,
    "atures": 6691,
    "Ġneighb": 9882,
    "feel": 36410,
    "Ġsovereign": 18901,
    "Ġexcessively": 40437,
    "Ġstretching": 20880,
    "olor": 45621,
    "Arthur": 29874,
    "Ġreduced": 5322,
    "121": 19244,
    "ĠSERV": 42887,
    "ĠSod": 43829,
    "Proof": 44683,
    "ĠWal": 6445,
    "ixel": 7168,
    "WORK": 33249,
    "ĠPaleo": 46840,
    "Ġcitizen": 9511,
    "float": 22468,
    "Ġsuing": 28941,
    "Ġexample": 1672,
    "ĠLabrador": 45246,
    "Ġdebtor": 49519,
    "ĠWright": 12206,
    "Ġyouths": 28247,
    "78": 3695,
    "Ġgou": 50162,
    "Ġchurch": 4928,
    "ĠCable": 20249,
    "ĠLoan": 32314,
    "handler": 30281,
    "ĠMoz": 28036,
    "ĠCannabis": 28838,
    "229": 23539,
    "thro": 26110,
    "million": 14100,
    "ĠFlag": 19762,
    "aneers": 33547,
    "Ġmeasure": 3953,
    "ĠWast": 32929,
    "Ġbuffs": 34636,
    "Ġgerm": 41171,
    "ney": 1681,
    "can": 5171,
    "Ġgrounds": 9384,
    "pes": 12272,
    "ĠRevised": 31492,
    "ÃįÃį": 43569,
    "reality": 46290,
    "orian": 22618,
    "ĠAuditor": 38938,
    "zilla": 16496,
    "Ġvacations": 48695,
    "Ġcoffee": 6891,
    "ĠPH": 9370,
    "Ġdecorative": 39798,
    "org": 2398,
    "illa": 5049,
    "Armor": 31512,
    "ĠFer": 12880,
    "antically": 31589,
    "ĠLikely": 45974,
    "Ġinsulated": 47869,
    "Ġcorrespondence": 22440,
    "ĠRes": 1874,
    "slot": 43384,
    "ĠRand": 8790,
    "234": 24409,
    "Ġdeduction": 24374,
    "Channel": 29239,
    "ĠKubrick": 46354,
    "Ġmoaning": 47644,
    "afia": 22214,
    "assy": 11720,
    "Ġ244": 35264,
    "Ġled": 2957,
    "pected": 7254,
    "iris": 29616,
    "Ġpossibly": 5457,
    "ĠUR": 37902,
    "OVA": 41576,
    "Drag": 46022,
    "venth": 20987,
    "Unix": 47000,
    "Evil": 48477,
    "ãĢĤ": 16764,
    "Ġairplane": 19401,
    "Ġexclusive": 8568,
    "ĠMam": 29926,
    "ĠBucket": 48353,
    "ullivan": 16040,
    "essential": 31195,
    "inctions": 31253,
    "Ġparach": 31852,
    "Ġinsurgents": 31622,
    "362": 35667,
    "Ġthemselves": 2405,
    "lington": 17299,
    "Ġfresh": 4713,
    "ĠProm": 10335,
    "Ġ1947": 21709,
    "Ġgru": 22848,
    "ĠDevin": 37081,
    "isconsin": 8816,
    "Ġcomplaints": 9687,
    "ĠMandela": 40233,
    "ĠAffect": 36931,
    "ĠGuid": 37026,
    "Ġhopped": 45230,
    "Okay": 16454,
    "Ġfutures": 25650,
    "ĠMunicip": 27338,
    "ĠSt": 520,
    "bt": 18347,
    "ĠFerrari": 23502,
    "Hunt": 47663,
    "AUD": 48877,
    "ĠNorse": 38419,
    "Ġdiss": 6249,
    "Ġwells": 22571,
    "ĠMatch": 13225,
    "Ġsimilarity": 26789,
    "ĠCreator": 21038,
    "Ġrecruitment": 19624,
    "alon": 40755,
    "Ġgambling": 19029,
    "ĠChancellor": 19477,
    "Hong": 48559,
    "ĠAttributes": 49213,
    "ĠSan": 2986,
    "ĠUN": 4725,
    "inders": 29700,
    "lor": 4685,
    "ĠSigned": 36215,
    "there": 8117,
    "Ġaging": 14736,
    "Property": 21746,
    "Ġreacts": 30174,
    "Ġtell": 1560,
    "Ġsignaled": 34676,
    "Ġacquaintance": 35552,
    "Ġpointer": 17562,
    "DOM": 39170,
    "Ġ445": 48655,
    "Ġmagistrate": 38620,
    "func": 20786,
    "Ġhomophobia": 42583,
    "Ġ./": 24457,
    "ateurs": 45211,
    "ĠFo": 19434,
    "Ġreapp": 24578,
    "Ġembed": 11525,
    "Ġbaptism": 33422,
    "ĠHenderson": 22016,
    "ĠLiter": 17667,
    "Ġoverly": 17698,
    "hovah": 33023,
    "ĠHampton": 36852,
    "Ġframework": 9355,
    "Ġ106": 15696,
    "ĠNob": 8140,
    "Kind": 35854,
    "Ġcorrect": 3376,
    "Ġripple": 42462,
    "Ġpreserving": 23934,
    "ĠSixers": 46321,
    "oppy": 26696,
    "scribed": 47495,
    "Ġ51": 6885,
    "hedon": 46086,
    "Ġmelancholy": 47886,
    "ĠMaybe": 6674,
    "eas": 30412,
    "ĠScher": 47956,
    "ĠShift": 15576,
    "ruciating": 48404,
    "Ġnarcissistic": 48502,
    "Ġtheorist": 46410,
    "Ask": 25214,
    "igation": 7065,
    "Ġ400": 7337,
    "Seeing": 36314,
    "\"))": 48774,
    "ville": 4244,
    "Ġdizz": 29527,
    "Ġsquadron": 40733,
    "Ġvehicles": 5672,
    "ĠCald": 29182,
    "%%": 16626,
    "Ġcostumes": 24138,
    "ind": 521,
    "Ġfoot": 2366,
    "ĠJavaScript": 11933,
    "Ġtha": 28110,
    "Ġforensic": 23953,
    "Ġplaylist": 33178,
    "scription": 33584,
    "Ġunwitting": 38420,
    "ĠMiracle": 33292,
    "ĠOsaka": 42429,
    "ĠMith": 44137,
    "Spain": 45355,
    "Ã©e": 22161,
    "berus": 39192,
    "Ġproductions": 32260,
    "Ġlawsuit": 8087,
    "Ġexacerb": 22907,
    "Ġcomfortable": 6792,
    "Ġcattle": 17025,
    "Jon": 18219,
    "lust": 38878,
    "Ġhop": 1725,
    "Ġimposition": 38091,
    "ĠBattalion": 29887,
    "Ġdecisively": 47948,
    "cod": 19815,
    "Ġssh": 26678,
    "\"?": 13984,
    "Ġbuy": 2822,
    "ĠZionism": 48394,
    "population": 39748,
    "Ġbystand": 33326,
    "ĠBoh": 44366,
    "Ġlined": 16566,
    "Ġacc": 697,
    "possibly": 39363,
    "ĠJenn": 9777,
    "ĠMurdoch": 30370,
    "ĠStewart": 13671,
    "Ġfined": 22643,
    "bies": 29846,
    "ynt": 33567,
    "Ġal": 435,
    "Roberts": 45487,
    "ĠKara": 34856,
    "æķ": 46763,
    "ading": 4980,
    "Ġproof": 6617,
    "acial": 18150,
    "ĠTransfer": 20558,
    "ĠRatings": 36826,
    "Ġendorsing": 38379,
    "ĠWallet": 37249,
    "yeah": 43669,
    "Ġstockpile": 45360,
    "ĠHeck": 31679,
    "character": 22769,
    "ogy": 9868,
    "land": 1044,
    "Ġderiv": 16124,
    "Ġholidays": 17122,
    "Ġaffiliated": 18552,
    "ĠPrinceton": 23173,
    "Ġwatered": 48024,
    "Ġlanding": 9581,
    "ĠMotorola": 31351,
    "ĠProsper": 41342,
    "Ġfo": 11511,
    "ĠQuite": 29051,
    "ĠRox": 34821,
    "Ġobligations": 13675,
    "computer": 33215,
    "Ġdownside": 25320,
    "election": 14300,
    "ĠGarg": 39013,
    "URI": 47269,
    "Ġpur": 1308,
    "Ġcomputational": 31350,
    "ĠAvenue": 8878,
    "Ġepic": 12191,
    "Ġcommod": 13088,
    "Ġexpansive": 31316,
    "Sex": 23398,
    "Ġerg": 39035,
    "Ġvalidated": 31031,
    "ĠTra": 4759,
    "inder": 5540,
    "Ġorganic": 10469,
    "Ġtopped": 20633,
    "Ġcommentator": 28823,
    "ĠSil": 4243,
    "Ġbiologically": 44479,
    "Str": 13290,
    "Ġsocket": 17802,
    "edom": 3836,
    "cluded": 10341,
    "Ġcracking": 25407,
    "Ġbaff": 25989,
    "abol": 28426,
    "Ġmoral": 6573,
    "..": 492,
    "Ġdi": 2566,
    "Ġairline": 18091,
    "Ġfour": 1440,
    "ĠDriving": 32889,
    "Ġfuturistic": 36701,
    "Ġsettings": 6460,
    "anish": 7115,
    "van": 10438,
    "Ġshell": 7582,
    "Ġfires": 12252,
    "Ġexplanation": 7468,
    "MW": 14326,
    "ĠKorean": 6983,
    "Ġdiseases": 10040,
    "Ġanimations": 22407,
    "Ġpatches": 16082,
    "ĠSerial": 23283,
    "hard": 10424,
    "ĠLor": 26068,
    "ĠChamp": 29260,
    "cam": 20991,
    "Ġtorment": 33378,
    "040": 36676,
    "Ġawe": 25030,
    "Ġsadness": 25303,
    "ĠReality": 22520,
    "estone": 13631,
    "hung": 43274,
    "ĠEndurance": 43290,
    "verbal": 46953,
    "abouts": 27880,
    "rieving": 37418,
    "Ġquantity": 12040,
    "WOOD": 49466,
    "Weiss": 48760,
    "Ġplaint": 13371,
    "Ġpreviously": 4271,
    "Episode": 23758,
    "Ġgenitals": 35853,
    "Ġamput": 40338,
    "ĠCompany": 5834,
    "depth": 18053,
    "ĠCure": 36947,
    "ĠMakoto": 40627,
    "Ġaven": 27968,
    "Ġlive": 2107,
    "Ġtraff": 11878,
    "Ġvice": 7927,
    "Ġsuperhuman": 47262,
    "ĠAnxiety": 48276,
    "ĠGateway": 29916,
    "soft": 4215,
    "fen": 41037,
    "ĠOpen": 4946,
    "Ġscenarios": 13858,
    "Ġload": 3440,
    "Ġspecializes": 29786,
    "Ġkeeper": 28356,
    "Ġrelinqu": 36610,
    "Ġsavior": 47921,
    "Definition": 36621,
    "student": 50139,
    "goo": 42469,
    "Ġ470": 38634,
    "ĠExcellence": 42525,
    "Ġproductivity": 13714,
    "asser": 24929,
    "Someone": 28211,
    "Ġbribes": 39926,
    "ĠPants": 41689,
    "othal": 42376,
    "folder": 43551,
    "even": 10197,
    "Ġrip": 18344,
    "Ġsympathetic": 22335,
    "ĠClone": 30698,
    "Ġmake": 787,
    "ĠNicola": 40396,
    "Keys": 40729,
    "¶ħ": 41678,
    "Ġpopularity": 11533,
    "Ġ2014": 1946,
    "Ġcall": 869,
    "Ġrituals": 25797,
    "Ġhumane": 31533,
    "-|": 22831,
    "Ġactors": 10544,
    "ATES": 29462,
    "ĠMolly": 30236,
    "Ġlaughable": 47623,
    "Ġwarp": 25825,
    "Ġcoefficients": 44036,
    "LY": 11319,
    "edia": 5507,
    "Ġ__": 11593,
    "ĠPhilippine": 29911,
    "BF": 29499,
    "ĠAwareness": 36735,
    "Ġafraid": 7787,
    "Ġantagonist": 34667,
    "FN": 43221,
    "asionally": 31775,
    "Ġindividuality": 48960,
    "Ġleak": 13044,
    "Ġsymptom": 25993,
    "breakers": 49295,
    "Ġshout": 9191,
    "Ġmother": 2802,
    "ĠEmbassy": 23233,
    "ĠNoct": 32809,
    "irit": 3276,
    "Ġembedded": 14553,
    "Ġautoimmune": 46938,
    "Ġovertake": 48155,
    "ĠSummoner": 49167,
    "Ġsavvy": 32800,
    "ifest": 8409,
    "Ġmatches": 7466,
    "Ġconnecting": 14320,
    "Ġphenomenal": 28187,
    "base": 8692,
    "Ġhippocamp": 28253,
    "ional": 1538,
    "Ġmisery": 24672,
    "Ġpaved": 31285,
    "yden": 43955,
    "490": 31503,
    "ĠHorizons": 39519,
    "ĠValhalla": 48762,
    "Ġtrack": 2610,
    "cht": 21474,
    "Ġdigitally": 34491,
    "Î¿": 26517,
    "ĠBore": 45409,
    "tested": 39612,
    "ĠMermaid": 45523,
    "together": 45525,
    "ĠCLE": 30301,
    "Ġdementia": 27886,
    "Ġcy": 3075,
    "ĠMagn": 14872,
    "Ġweighed": 20261,
    "Ġland": 1956,
    "Ġopener": 21996,
    "ustomed": 22646,
    "micro": 24055,
    "Ġvas": 34439,
    "ĠTree": 12200,
    "sei": 36455,
    "Ġveiled": 45694,
    "BIT": 26094,
    "ĠMichaels": 44768,
    "ĠExam": 35909,
    "Ġphp": 39347,
    "ophobia": 19851,
    "ceive": 15164,
    "Ġregister": 7881,
    "580": 39322,
    "Ġcooldown": 20869,
    "pers": 19276,
    "Ġus": 514,
    "Pin": 28348,
    "ĠAnderson": 9918,
    "Ġbreasts": 17515,
    "Ġ_": 4808,
    "Ġcleans": 20658,
    "ĠExploration": 36806,
    "Ġagainst": 1028,
    "bles": 7689,
    "Ġden": 2853,
    "Conn": 37321,
    "Ġmart": 11277,
    "umbers": 17024,
    "ĠApplications": 26622,
    "oct": 38441,
    "Ġanarchy": 42856,
    "ogh": 46664,
    "Ġhike": 18390,
    "Ġsinging": 13777,
    "Ġcleansing": 32784,
    "Ġcataly": 36745,
    "ĠBaptist": 21724,
    "Ġcol": 951,
    "ĠShopping": 39109,
    "Ġlegitim": 18262,
    "Ġpreschool": 38725,
    "ĠHeld": 44584,
    "Ġentertained": 34988,
    "ĠWillie": 28623,
    "Ġ1930": 15533,
    "gue": 18701,
    "ĠClaudia": 50214,
    "Ġpathological": 42306,
    "Crit": 18559,
    "ĠTwitch": 23835,
    "respons": 16733,
    "Ġbenchmarks": 31747,
    "uku": 33263,
    "Pink": 41912,
    "Ġcruelty": 23152,
    "Ġportals": 42604,
    "Ġgrun": 44397,
    "ugh": 6724,
    "Ġhonor": 7522,
    "Ġaver": 9076,
    "ĠLimited": 15302,
    "Ġorgans": 16613,
    "Ġextremists": 20674,
    "Ġank": 16553,
    "Ġesp": 15024,
    "Ġhesitated": 41723,
    "Ġshortages": 28791,
    "gs": 14542,
    "ANN": 22846,
    "cas": 34004,
    "movie": 41364,
    "Ġhumiliated": 42659,
    "Ġresolve": 10568,
    "ĠAdditional": 15891,
    "Ġdevice": 3335,
    "ulo": 43348,
    "ĠFlowers": 30036,
    "esome": 5927,
    "Ġ392": 48207,
    "ĠHobby": 44327,
    "teenth": 20283,
    "Ġprayers": 15707,
    "boost": 39521,
    "Ġcal": 2386,
    "Ł": 253,
    "Ġscra": 19320,
    "ĠClearly": 23730,
    "ploy": 1420,
    "oters": 26008,
    "Ġsty": 8944,
    "Ġimpuls": 30348,
    "Ġfaults": 31025,
    "ĠGrav": 32599,
    "ĠVenezuelan": 34497,
    "Ġchronically": 49386,
    "ĠRavens": 20091,
    "oxy": 23536,
    "Ġlearning": 4673,
    "ĠKeeping": 33311,
    "Arg": 28100,
    "Slow": 36423,
    "ĠLayout": 47639,
    "Ġhandling": 9041,
    "ĠYoutube": 27431,
    "Ġhumid": 35441,
    "Herm": 48523,
    "Ġventure": 13189,
    "ĠSpoon": 48704,
    "Ġregul": 3475,
    "Ġease": 10152,
    "MAN": 10725,
    "Ġjson": 33918,
    "Ġstret": 5759,
    "ss": 824,
    "ĠBillboard": 36229,
    "ociation": 41003,
    "bes": 12636,
    "ĠMilitia": 48558,
    "ĠAbd": 17870,
    "158": 21273,
    "ĠPatt": 24682,
    "inav": 26802,
    "ĠMetroid": 45430,
    "ĠOrb": 15839,
    "ukes": 31469,
    "entin": 31371,
    "Ġfill": 6070,
    "ĠLarge": 13601,
    "Ġriot": 16352,
    "ĠWild": 6183,
    "athan": 6696,
    "Ġinspect": 10104,
    "Ġoccasionally": 10491,
    "ĠIS": 3180,
    "Ġimproving": 10068,
    "Ġlens": 10317,
    "ĠIF": 16876,
    "Ġproprietary": 20622,
    "Ġcorpse": 21304,
    "Ġaccurately": 14351,
    "Ġmartial": 15618,
    "ãĤ¨": 23544,
    "Ġknights": 27536,
    "Ġwidget": 26295,
    "ĠEk": 31873,
    "starting": 38690,
    "Ġgrop": 39136,
    "rots": 24744,
    "Ġdecency": 39589,
    "ĠComprehensive": 40917,
    "ĠConquer": 40963,
    "Ġfierce": 14800,
    "perhaps": 28998,
    "Ġnoses": 41760,
    "870": 46951,
    "lol": 47288,
    "ĠHOR": 48345,
    "ogle": 2467,
    "Ġprosecuted": 23086,
    "Ġunrel": 23232,
    ")...": 26513,
    "umer": 6975,
    "ĠByte": 30589,
    "Ġpit": 6028,
    "Ġgathering": 11228,
    "Ġspirituality": 39409,
    "áµ": 39611,
    "Ġpulls": 16194,
    "Ġpurch": 3040,
    "called": 7174,
    "ĺħ": 11805,
    "endif": 32088,
    "Ġknight": 22062,
    "ibaba": 37541,
    "mist": 37980,
    "recorded": 47398,
    "ĠAdvantage": 45318,
    "ĠPB": 30524,
    "ĠSE": 7946,
    "ĠTurns": 30875,
    "ĠSuk": 41218,
    "Ġsponsor": 17487,
    "Ġmap": 3975,
    "Ġmarkets": 5939,
    "Ġfif": 5515,
    "Ġflavorful": 47420,
    "Ġmanifold": 48048,
    "ĠArtificial": 35941,
    "Ġadditional": 3224,
    "747": 48882,
    "ĠPractice": 19939,
    "WHERE": 47357,
    "ructure": 5620,
    "Ġlanded": 11406,
    "ĠAnnotations": 47939,
    "ĠDominic": 36401,
    "Ġexoner": 43507,
    "ung": 2150,
    "anti": 17096,
    "101": 8784,
    "Ġexposing": 21294,
    "Ġect": 46080,
    "Ġinterrog": 15054,
    "Try": 23433,
    "Ġdef": 825,
    "Ġloss": 2994,
    "ĠLG": 17370,
    "ĠLebanese": 28076,
    "ĠYosh": 28563,
    "Ġsummarized": 31880,
    "Ġaquarium": 33868,
    "Ġlaunch": 4219,
    "Ġtunnel": 13275,
    "Ġbelow": 2174,
    "Ġmost": 749,
    "Ġmusical": 10530,
    "andra": 15918,
    "Ġworldview": 29081,
    "Ġmarker": 18364,
    "Ġstuff": 3404,
    "Social": 20636,
    "Ġresponsibility": 5798,
    "-'": 19355,
    "ĠUganda": 30872,
    "sp": 2777,
    "Ġ980": 32614,
    "Ġsubmarines": 34031,
    "ĠWick": 36029,
    "RM": 29138,
    "ĠTrad": 8397,
    "ĠColonel": 21636,
    "Math": 37372,
    "ĠHamm": 40801,
    "Ġnumbers": 3146,
    "ospel": 13994,
    "ĠOperation": 14680,
    "raining": 24674,
    "ĠBrazilian": 17036,
    "Ġlodged": 31984,
    "Ġsusceptibility": 43304,
    "Ġ188": 27778,
    "Ġscree": 43465,
    "attach": 47348,
    "Ġuntouched": 36519,
    "ĠRusso": 46855,
    "Ġenormous": 9812,
    "Ġmoot": 41264,
    "Ġabolition": 30480,
    "choes": 23001,
    "Self": 24704,
    "Ġunloaded": 49975,
    "Ġab": 450,
    "Ġpainted": 13055,
    "Ops": 41472,
    "Ġske": 6146,
    "Ġsignifies": 43854,
    "Ġfrivol": 43418,
    "ĠÂłĠÂłĠÂłĠÂłĠÂłĠÂłĠÂłĠÂł": 45706,
    "ĠGou": 46531,
    "Ġhousehold": 6641,
    "ADD": 29266,
    "Ġregain": 21509,
    "Ġministry": 11957,
    "Ġalluded": 45652,
    "impact": 48240,
    "aus": 8717,
    "ĠHunting": 22059,
    "directory": 34945,
    "Ġtheat": 23776,
    "Ġattracting": 25142,
    "SELECT": 46506,
    "Ġ121": 20416,
    "uous": 5623,
    "isch": 25308,
    "Ġineligible": 39538,
    "ued": 1739,
    "ython": 7535,
    "Ġtracked": 18283,
    "Ġanticipate": 23794,
    "Ġcross": 3272,
    "Ġcondu": 36118,
    "Ġfamously": 20524,
    "gear": 31763,
    "ĠView": 3582,
    "ĠLeonardo": 38083,
    "Ġdebate": 4384,
    "ĠCV": 26196,
    "488": 33646,
    "Ġimpat": 28189,
    "Ġbust": 13076,
    "Ġcomplying": 39076,
    "Ġunintentional": 48398,
    "Ġsubstantially": 13788,
    "Ġcharacter": 2095,
    "Ġforestry": 37683,
    "ĠBraz": 41414,
    "Ġ154": 24235,
    "Ba": 34458,
    "77": 3324,
    "Attempt": 37177,
    "ATION": 6234,
    "Ġelectron": 11538,
    "ECH": 25994,
    "ĠYes": 3363,
    "Ġmarital": 29555,
    "NASA": 29998,
    "Round": 22685,
    "def": 4299,
    "Sony": 32895,
    "SPONSORED": 37190,
    "essors": 23295,
    "Ġunearthed": 41562,
    "ĠCPC": 41190,
    "ĠAge": 7129,
    "Ġpattern": 3912,
    "Ġlobbying": 17502,
    "ĠBiological": 32827,
    "ĠThan": 17924,
    "Ġnowhere": 12062,
    "Ġimplant": 29016,
    "Ġtemperament": 36140,
    "Ġcurated": 36768,
    "ĠStellar": 39336,
    "Dou": 40287,
    "OTA": 29009,
    "Ġworsen": 47058,
    "143": 21139,
    "ĠRooney": 33925,
    "Ġdefinitions": 17336,
    "Ġorganizers": 19043,
    "left": 9464,
    "Ġheavyweight": 32489,
    "Ġgrocer": 34185,
    "Ġneurons": 16890,
    "ĠKodi": 44129,
    "ğ": 219,
    "ĠSelf": 12189,
    "ĠConstitutional": 26740,
    "Ġroyalty": 29359,
    "loo": 29680,
    "450": 17885,
    "igor": 36274,
    "Ġimportantly": 11003,
    "Ġhomemade": 24584,
    "aler": 36213,
    "Ġcoded": 30817,
    "Ġcensor": 42081,
    "eers": 47619,
    "ĠIrving": 26101,
    "ĠCurt": 19569,
    "inner": 5083,
    "Ġunavailable": 23485,
    "ĠAndrews": 26414,
    "iter": 2676,
    "Ġrese": 1599,
    "ĠCU": 29369,
    "ĠAura": 29434,
    "Ġsaints": 31728,
    "Ġphysi": 42087,
    "mr": 43395,
    "Ġstereotype": 31240,
    "ĠBulk": 47900,
    "ĠOrganization": 12275,
    "Ġinnovate": 47916,
    "Room": 41178,
    "Ġstudio": 8034,
    "Ġannoun": 2335,
    "Ġarts": 10848,
    "Ġwhites": 13216,
    "Ġthirst": 24613,
    "Ġbusinesses": 5692,
    "Ġpriests": 17345,
    "akuya": 29863,
    "Ġtoug": 14427,
    "conf": 10414,
    "ĠStyle": 17738,
    "name": 3672,
    "ĠFeng": 18164,
    "Ġpurse": 27517,
    "Ġprocedures": 9021,
    "Ġrails": 27587,
    "Books": 30650,
    "ĠKH": 40249,
    "ĠSetting": 25700,
    "Ġkios": 46739,
    "Ġprivacy": 6782,
    "Ġquote": 9577,
    "ĠAudi": 26686,
    "Ġdeeper": 9211,
    "attack": 20358,
    "Greg": 25025,
    "luent": 28216,
    "Ġpatriotic": 33453,
    "Ġcopy": 4866,
    "Ġshit": 7510,
    "Ġvel": 11555,
    "growth": 27922,
    "ĠÄ": 34754,
    "iday": 2567,
    "tax": 19290,
    "ĠGreece": 10315,
    "orical": 12409,
    "xc": 25306,
    "Ġdilemma": 26566,
    "Ġinsists": 17424,
    "hei": 27392,
    "Ñĥ": 35072,
    "Ġcases": 2663,
    "Ġclicks": 25785,
    "Ġbriefing": 17719,
    "ĠHuntington": 40644,
    "Ġ\\(\\": 40719,
    "Rem": 8413,
    "Ġundead": 26805,
    "â": 158,
    "Ġunob": 41511,
    "ries": 1678,
    "Ġtendon": 42205,
    "ĠEllie": 44801,
    "Leader": 45009,
    "Improve": 47531,
    "ĠKira": 49103,
    "repre": 10353,
    "pi": 14415,
    "mates": 7300,
    "ĠMerkel": 18263,
    "Ġliaison": 43176,
    "Ġidentification": 11795,
    "multiple": 48101,
    "ampoo": 40239,
    "Ġmature": 15345,
    "ĠRobin": 12325,
    "ĠRevolutionary": 28105,
    "Ġpsychopath": 29670,
    "crafted": 39160,
    "Ġcautiously": 39640,
    "ĠHobbit": 43877,
    "Ġresearching": 24114,
    "Ġcyn": 19768,
    "ĠTamil": 32519,
    "direction": 37295,
    "ĠNewt": 40893,
    "616": 44214,
    "ĠAlexandra": 44075,
    "vez": 33425,
    "osis": 5958,
    "Ġsacrament": 49081,
    "ALS": 23333,
    "Ġbuddy": 24407,
    "itational": 22181,
    "ĠSixth": 28980,
    "BM": 12261,
    "Ġstairs": 16046,
    "ording": 1284,
    "ĠCasting": 39285,
    "ĠVersus": 44079,
    "Ġintelligent": 12661,
    "ĠDanish": 20849,
    "fortable": 12065,
    "ifted": 21715,
    "Ġcook": 4255,
    "146": 20964,
    "hon": 24130,
    "Ġreplacements": 36205,
    "Ġimpacting": 40288,
    "Ġatoms": 23235,
    "bec": 9423,
    "ĠHAL": 42968,
    "Ġrout": 3441,
    "707": 24038,
    "KY": 31159,
    "ansen": 33807,
    "kil": 34553,
    "atican": 18245,
    "ĠReggie": 36586,
    "ĠKislyak": 46467,
    "Ġacquiring": 22488,
    "ĠJerusalem": 10843,
    "ĠDM": 14848,
    "ĠSag": 25605,
    "Ġinaccur": 47283,
    "ĠKle": 15983,
    "ĠActive": 14199,
    "Ġvirgin": 21772,
    "Ġostensibly": 31454,
    "ĠKits": 40297,
    "Child": 16424,
    "164": 23237,
    "Ġneutrality": 20723,
    "Ġwrongdoing": 25013,
    "ĠMead": 21910,
    "Ġoldest": 13325,
    "neutral": 29797,
    "itis": 11815,
    "Ġdesire": 6227,
    "Muslim": 17067,
    "Ġinevitably": 16857,
    "Ġthrill": 28576,
    "Ġunnecessarily": 38347,
    "Ġassum": 4368,
    "outh": 1536,
    "Ġoils": 20629,
    "eye": 25379,
    "Ġideologically": 49764,
    "TL": 14990,
    "ĠKrugman": 46311,
    "Ġdumped": 24105,
    "lymp": 6760,
    "ĠFreed": 38728,
    "Ġfestive": 43856,
    ".''.": 50113,
    "Ġheels": 18728,
    "Ġ410": 32921,
    "ĠHouse": 2097,
    "Ġsorted": 23243,
    "ĠLeafs": 25479,
    "Ġhostages": 31331,
    "Ġdatasets": 40522,
    "ĠUniverse": 11950,
    "Ġdisenfranch": 41307,
    "ĠCalculator": 43597,
    "RW": 46747,
    "oun": 977,
    "ĠEquality": 31428,
    "Sc": 3351,
    "ĠGing": 26169,
    "give": 26535,
    "ĠElectronics": 27828,
    "ookie": 18055,
    "nom": 26601,
    "Fine": 34389,
    "politics": 34127,
    "Russian": 16220,
    "Ġ**": 12429,
    "Ġtemples": 27081,
    "ĠCher": 19305,
    "Ġ1971": 16382,
    "Ġtempt": 12475,
    "ĠMinimum": 26265,
    "successfully": 37351,
    "ĠSATA": 35070,
    "ĠDisneyland": 36312,
    "ĠHDD": 43601,
    "ecd": 21142,
    "Ń": 255,
    "Ġsymbolism": 36913,
    "ol": 349,
    "lo": 5439,
    "Ġfund": 1814,
    "ately": 1286,
    "ollen": 29952,
    "î": 170,
    "ĠmacOS": 40017,
    "Ġder": 4587,
    "Ġeconomically": 20324,
    "431": 50080,
    "Ġ1903": 41625,
    "ĠEchoes": 45547,
    "ĠYelp": 44628,
    "Ġeasily": 3538,
    "Ġfighter": 10543,
    "Ġtaxpayers": 14086,
    "ĠAttack": 8307,
    "Ġ(%)": 11509,
    "shield": 26662,
    "Ġ163": 26826,
    "ĠPowerShell": 33870,
    "onne": 47476,
    "ĠPakistan": 7648,
    "utical": 14224,
    "gently": 34727,
    "Ġattributed": 14183,
    "casts": 40924,
    "iotics": 18296,
    "Ġ):": 15179,
    "Ġadvisers": 20409,
    "Ġallegedly": 7910,
    "ĠCOL": 20444,
    "Ġcreates": 8075,
    "ĠSSD": 21252,
    "Chicago": 25705,
    "gam": 28483,
    "ĠWheels": 37416,
    "Ġeats": 25365,
    "¿": 123,
    "Ġediting": 12857,
    "fold": 11379,
    "Ġestim": 3959,
    "ĠCharacter": 15684,
    "Ġfaster": 5443,
    "Ġfled": 11468,
    "Ġassailants": 49690,
    "Ġparental": 21694,
    "Fresh": 35857,
    "am": 321,
    "ĠEssentially": 34039,
    "âĸĦ": 45786,
    "Ġsignage": 46924,
    "Ġf": 277,
    "Ġintentionally": 16464,
    "Ġrecruit": 10960,
    "ĠFrem": 38433,
    "Ġbanana": 25996,
    "Ġterrestrial": 35609,
    "Ġfeats": 35664,
    "Ġinterestingly": 50226,
    "Ġexclude": 19607,
    "Ġbenevolent": 45599,
    "irled": 49376,
    "Ġdesktop": 11364,
    "ger": 1362,
    "Ġinch": 11111,
    "ĠIm": 1846,
    "ttle": 23296,
    "ĠFIG": 19697,
    "Ġaccept": 2453,
    "Ġtort": 7619,
    "ãĥ©": 9263,
    "Ġimpacts": 12751,
    "ĠFinding": 27063,
    "lead": 28230,
    "ĠFischer": 30901,
    "Ġimmortal": 26156,
    "ĠScy": 32252,
    "Ġyr": 42635,
    "boot": 18769,
    "atlantic": 43342,
    "OGR": 49656,
    "Ġfans": 3296,
    "better": 27903,
    "Ġonset": 21228,
    "arty": 25494,
    "Ġstable": 8245,
    "Ġbuilder": 27098,
    "Ġprison": 3770,
    "ticket": 43350,
    "BBC": 33833,
    "Ġvalves": 41843,
    "SEA": 46887,
    "ĠDisk": 31664,
    "ĠFr": 1305,
    "Ġsort": 3297,
    "ĠCapitals": 40707,
    "aimon": 49438,
    "Ġobs": 10201,
    "Ġ!=": 14512,
    "Ġsalary": 9588,
    "Ġwrote": 2630,
    "Ġalliance": 12801,
    "Constructed": 25207,
    "Ġrevelation": 16084,
    "Ġmass": 2347,
    "ĠTM": 21232,
    "appy": 7774,
    "Ġfilmmakers": 28303,
    "Choose": 31851,
    "quist": 30062,
    "Ep": 13807,
    "ĠSpartan": 34527,
    "osta": 39818,
    "441": 39710,
    "Ġinequalities": 45460,
    "ĠSour": 47694,
    "ĠWonderful": 40128,
    "Ġchocolate": 11311,
    "ĠMessage": 16000,
    "ĠHad": 11161,
    "ĠPatrol": 20989,
    "ĠLimbaugh": 43306,
    "ĠLtd": 12052,
    "Ġstatue": 15207,
    "ĠAlways": 16622,
    "Ġyear": 614,
    "Ġprospect": 6034,
    "Ġstagger": 20778,
    "Si": 42801,
    "Ġappease": 47316,
    "ĠBowling": 44748,
    "Ġslew": 26891,
    "Ġinfl": 28472,
    "Ġscor": 34203,
    "1950": 42751,
    "ĠForget": 29624,
    "Ġmanaging": 11149,
    "Basic": 26416,
    "Ġprimates": 41316,
    "ĠIndonesian": 28259,
    "Ġvantage": 47929,
    "ibliography": 45689,
    "Ġtight": 5381,
    "ĠShattered": 48330,
    "shift": 30846,
    "ĠGrant": 12181,
    "Ġmidfield": 12459,
    "finger": 35461,
    "ĠAdult": 21171,
    "ĠMessenger": 24306,
    "coin": 3630,
    "train": 27432,
    "Ġunified": 22706,
    "ĠNano": 33504,
    "ĠDeaths": 37044,
    "Ġplent": 38145,
    "Ġcom": 401,
    "gz": 34586,
    "ĠPTS": 20907,
    "sticks": 34810,
    "commerce": 27061,
    "arton": 41328,
    "concept": 43169,
    "Ġinterstellar": 48851,
    "Ġcommitment": 7901,
    "Ġsrc": 12351,
    "Ġplatoon": 39368,
    "ĠMou": 49902,
    "Ġfur": 9230,
    "Ġconvol": 46968,
    "ĠSem": 12449,
    "Ġeducation": 3707,
    "Ġbitch": 21551,
    "rendered": 26238,
    "OK": 11380,
    "Ġunfl": 42880,
    "abling": 11716,
    "oba": 19981,
    "Ġallow": 1249,
    "ĠØ": 17550,
    "ĠPlug": 22689,
    "Factory": 22810,
    "Ġpervasive": 29280,
    "Ġworry": 5490,
    "rip": 5528,
    "Ġmoderate": 10768,
    "ĠAuburn": 24579,
    "ĠPaula": 36025,
    "Ġmock": 15290,
    "Ġalmost": 2048,
    "Ġ1993": 9656,
    "ĠQual": 9537,
    "Ġexpressive": 38084,
    "Kid": 48374,
    "Ġplatforms": 9554,
    "Ġadapted": 16573,
    "Ġwarns": 22145,
    "Ġrecounts": 39851,
    "ĠKaw": 23043,
    "Ġrelatives": 12772,
    "Ġheads": 6665,
    "Ġlifetime": 10869,
    "lov": 27086,
    "istor": 32380,
    "ĠHung": 12149,
    "Ġwarranty": 18215,
    "ifts": 19265,
    "Ġlitigation": 19284,
    "Ġ70": 4317,
    "Ġreferenced": 20717,
    "Ġamid": 10371,
    "ĠHighlander": 24567,
    "Ġps": 26692,
    "Ġdistinctly": 30911,
    "verend": 37713,
    "estyles": 42530,
    "ĠWP": 28993,
    "PART": 30709,
    "Ġferal": 43057,
    "Ġbondage": 43473,
    "ĠSpecifications": 46271,
    "Ġcounters": 21154,
    "gro": 27333,
    "ĠOuts": 46580,
    "Ġresc": 6811,
    "Ġbes": 7284,
    "ĠSprings": 18334,
    "ĠClockwork": 47120,
    "nova": 38438,
    "ĠCoc": 18490,
    "Ġspacing": 31050,
    "Ġestimating": 39539,
    "Ġalike": 12936,
    "icked": 9484,
    "ĠStore": 9363,
    "ĠLima": 41578,
    "ĠZIP": 42977,
    "Ġdisparate": 37433,
    "Ġdw": 43756,
    "42": 3682,
    "Ġerratic": 40583,
    "Pi": 38729,
    "-------------": 32501,
    "Ġshowcases": 45064,
    "Ray": 19591,
    "ĠBagg": 49329,
    "hand": 4993,
    "legate": 34637,
    "ĠFeld": 34873,
    "Ġtemporal": 21964,
    "ãĥ¼ãĥ³": 31708,
    "Ut": 18274,
    "Turkey": 31632,
    "Ġmenus": 26798,
    "rices": 45977,
    "corruption": 46260,
    "oter": 19543,
    "ĠAster": 38484,
    "Ġ127": 18112,
    "wo": 21638,
    "utsu": 36567,
    "ĠCat": 5181,
    "asonry": 38950,
    "ĠIT": 7283,
    "Ġlizard": 42406,
    "025": 36629,
    "Companies": 49111,
    "ĠAbby": 49220,
    "ĠZan": 47022,
    "Med": 9921,
    "×ĳ": 49603,
    "emin": 14857,
    "ĠMF": 32850,
    "ph": 746,
    "Deal": 45776,
    "ĠRangers": 13804,
    "Ġborrowed": 22546,
    "Ġunconstitutional": 20727,
    "Ġdescriptions": 16969,
    "USER": 29904,
    "ĝ": 217,
    "Ġpossession": 7797,
    "docs": 31628,
    "paces": 43076,
    "Ġguiding": 26727,
    "ĠElys": 41920,
    "ĠSomew": 32499,
    "Ġinst": 916,
    "osen": 5233,
    "ĠCaptain": 8599,
    "Ġlistening": 8680,
    "Pal": 11531,
    "131": 22042,
    "Ġelf": 23878,
    "vey": 3304,
    "Ġpus": 4192,
    "Ġestablishments": 33228,
    "Ġnext": 1306,
    "Ġoffend": 35117,
    "ĠBrunswick": 32211,
    "ĠSPECIAL": 38846,
    "ĠVoices": 40440,
    "Ġlicking": 43390,
    "Ġdistance": 5253,
    "Ġimpossibility": 50097,
    "Ġsynth": 33549,
    "ĠWee": 48643,
    "ĠSDL": 45417,
    "ĠAer": 15781,
    "Ġascend": 34800,
    "ĠArabia": 9671,
    "Ġengulf": 30443,
    "Ġattaching": 39550,
    "Ġforms": 5107,
    "arnaev": 42311,
    "boxing": 45471,
    "bsite": 12485,
    "Ġhumanitarian": 15706,
    "Ġgoogle": 23645,
    "694": 45214,
    "ĠDeter": 45559,
    "Ġtechnology": 3037,
    "Ġphilosophies": 45500,
    "Ġoutpost": 38327,
    "raught": 44451,
    "gpu": 46999,
    "Ġtaco": 47884,
    "Ġlay": 3830,
    "Ġanimated": 15108,
    "Ġveter": 5785,
    "zyme": 24266,
    "uple": 29291,
    "Ġmana": 13149,
    "ĠHaley": 30646,
    "ĠPVC": 46377,
    "Ġfright": 12773,
    "ĠSPI": 49091,
    "apter": 3429,
    "Ġextinguished": 42774,
    "thirst": 48832,
    "Ġcherry": 23612,
    "900": 12865,
    "Ġentrepreneurs": 17038,
    "wives": 35234,
    "Ġeyeing": 48847,
    "Ġfoc": 2133,
    "ĠPublic": 5094,
    "Fre": 20366,
    "ĠDrac": 35693,
    "Ġsword": 8429,
    "Folder": 41092,
    "ĠDefinitive": 46634,
    "Ġexperimented": 42107,
    "urse": 12321,
    "Magn": 48017,
    "ĠILCS": 36169,
    "rador": 40368,
    "ĠAcad": 7116,
    "ĠOperator": 35946,
    "pin": 11635,
    "ifty": 24905,
    "anim": 11227,
    "Ġundercover": 23557,
    "ĠGathering": 36397,
    "Ġpeculiar": 19501,
    "Next": 10019,
    "ouple": 43846,
    "ĠCroatian": 48853,
    "asons": 2812,
    "bum": 4435,
    "Ġraining": 43079,
    "keleton": 38800,
    "erial": 48499,
    "mil": 25433,
    "Ġangst": 48973,
    "imilation": 42963,
    "Getty": 6633,
    "ĠForgotten": 28586,
    "Ġhinder": 34541,
    "yellow": 36022,
    "ĠSalon": 40121,
    "articles": 26845,
    "ĠFranz": 38323,
    "Ġlack": 3092,
    "Claim": 44819,
    "IVE": 9306,
    "Ġpromotes": 21068,
    "875": 31360,
    "ĠVerge": 44499,
    "ĠMaggie": 33014,
    "ĠTactics": 23767,
    "WAY": 27285,
    "Ġcareless": 36138,
    "Scotland": 47230,
    "ĠNaples": 49404,
    "ĠAlb": 17399,
    "Large": 21968,
    "ĠRi": 30385,
    "ĠDynamic": 26977,
    "ĠHuck": 33703,
    "actory": 9548,
    "Ġwhales": 24635,
    "ĠTw": 1815,
    "Ġpara": 31215,
    "ĠShiite": 31445,
    "ueller": 16466,
    "Ġsaddened": 40434,
    "ĠRandom": 14534,
    "ĠPres": 1763,
    "Ġarchetype": 37942,
    "Ġmisleading": 15850,
    "Ġsuffered": 6989,
    "orned": 26994,
    "washing": 38524,
    "riers": 8910,
    "Ġtrop": 14673,
    "intendent": 21075,
    "Guard": 24502,
    "Ġsanct": 25417,
    "Ġ${": 25597,
    "Movie": 25097,
    "ĠVentura": 43204,
    "VERTISEMENT": 18679,
    "Ġreads": 9743,
    "Ġaka": 22430,
    "ĠLimits": 44943,
    "545": 45326,
    "ĠAv": 5184,
    "Ġ---------": 45337,
    "ĠCatherine": 22578,
    "gment": 5154,
    "addock": 35509,
    "Distance": 45767,
    "Ġapplaud": 22517,
    "lator": 41880,
    "ammers": 36846,
    "Ġincoming": 15619,
    "Ġfood": 2057,
    "ĠLinks": 21691,
    "ĠHover": 38452,
    "Ġstudents": 2444,
    "ĠJew": 3370,
    "kered": 28970,
    "zac": 49897,
    "fm": 38353,
    "Ġbreeding": 18954,
    "ĠSask": 23541,
    "itially": 22640,
    "Ġav": 1196,
    "Orange": 40141,
    "Ġdirectly": 3264,
    "ĠJon": 5966,
    "Stretch": 39181,
    "Ġflags": 9701,
    "Ġfoam": 19828,
    "levard": 22123,
    "CLA": 16827,
    "ĠUPDATE": 35717,
    "Ġfingertips": 40142,
    "one": 505,
    "Ġ40": 2319,
    "Ġpartnership": 10413,
    "gd": 21287,
    "akable": 29033,
    "ĠMustang": 31163,
    "Ġcer": 26074,
    "flags": 33152,
    "ĠDHCP": 43729,
    "Ġchilled": 45550,
    "Ġallot": 47405,
    "ĠUsername": 50069,
    "Mill": 22603,
    "shop": 24643,
    "047": 48000,
    "Ġstare": 24170,
    "ĠBeaver": 42746,
    "591": 48952,
    "ĠAllaah": 49086,
    "Ġaside": 7263,
    "Ġsed": 10081,
    "Ġexact": 2748,
    "Ġpressing": 12273,
    "ĠMTA": 48824,
    "plets": 46916,
    "ĠAmpl": 44074,
    "Ġbank": 3331,
    "ĠWebb": 25130,
    "ĠReason": 23219,
    "extremely": 41073,
    "665": 36879,
    "Ġflow": 5202,
    "ĠSocialist": 21773,
    "ĠReform": 17893,
    "ĠIN": 3268,
    "Ġsequencing": 32841,
    "Ġele": 9766,
    "Ġfundraiser": 27639,
    "ooting": 12494,
    "ĠGlad": 28442,
    "Ġfel": 10756,
    "iyah": 46398,
    "funded": 18246,
    "athom": 32910,
    "Ġjuvenile": 21904,
    "ithe": 31470,
    "Ġsage": 35021,
    "Ġdissect": 38319,
    "Ġdesirable": 18763,
    "ĠFlare": 39833,
    "---------": 45537,
    "ĠGIF": 24984,
    "Ġembro": 27623,
    "ĠELE": 40342,
    "Ġdiarr": 30409,
    "ĠFinance": 15007,
    "ĠSteam": 9094,
    "Ġvolumes": 15343,
    "Ġfurry": 40857,
    "Ġcathedral": 41756,
    "713": 50055,
    "Ġsurvivors": 13644,
    "ĠPelicans": 48206,
    "Ġstationed": 25967,
    "ĠDocumentation": 43925,
    "Ġturns": 4962,
    "ĠCosta": 18133,
    "Ġfacet": 39144,
    "Ġunthinkable": 39593,
    "Ġassaults": 21832,
    "Ġforc": 24686,
    "Ġaccelerating": 32253,
    "ĠFun": 11138,
    "Ġsat": 3332,
    "ĠFreeman": 22394,
    "roth": 33640,
    "icipated": 40988,
    "Ġpool": 5933,
    "Ġtransactions": 8945,
    "Ġdesignated": 11032,
    "focused": 18143,
    "ĠOw": 11960,
    "pair": 24874,
    "Ġfeeble": 46299,
    "measures": 47336,
    "ĠPhotos": 9434,
    "!!!!": 13896,
    "maxwell": 29047,
    "ĠRamadan": 37604,
    "ceivable": 48054,
    "ĠCth": 34901,
    "ĠChapters": 42448,
    "rid": 6058,
    "areth": 26659,
    "Ġcabinet": 13447,
    "Ġscrews": 23742,
    "HE": 13909,
    "Ġadjusted": 12328,
    "Ġgroup": 1448,
    "ickson": 46381,
    "Ġcosmetics": 36432,
    "Ġcarpet": 20710,
    "Ġrays": 24823,
    "Ġheadlined": 46958,
    "ĠAircraft": 30767,
    "ĠCull": 31289,
    "ĠNotre": 23382,
    "ĠAmazon": 6186,
    "Ġworrying": 18916,
    "ĠDunn": 30833,
    "Ġimmediately": 3393,
    "ĠNg": 34786,
    "Ġviewpoint": 28953,
    "yg": 35641,
    "grey": 49502,
    "andro": 28092,
    "Ġbombs": 12134,
    "oliberal": 28525,
    "ĠAdvoc": 37866,
    "claw": 43143,
    "licensed": 36612,
    "ĠKirst": 39700,
    "ĠLunch": 40514,
    "Ġemitted": 31234,
    "Sept": 14635,
    "Ġtatt": 14399,
    "ĠClash": 33117,
    "Obviously": 20670,
    "ĠABE": 44013,
    "Ġmayors": 44660,
    "Ġclimate": 4258,
    "gm": 39870,
    "Ġdifferent": 1180,
    "Ġ........": 20004,
    "Ġsun": 4252,
    "Ġ54": 7175,
    "ĠHidden": 20458,
    "Ġlifts": 27103,
    "Ġseemed": 3947,
    "encer": 12137,
    "Ġforests": 17039,
    "ĠBAR": 31597,
    "ĠWarn": 39567,
    "ĠNewark": 30970,
    "Ġinaction": 44376,
    "Ġ1861": 45278,
    "ipop": 42800,
    "ĠÂłÂł": 47654,
    "ĠIvanka": 31002,
    "ĠFunny": 40473,
    "ĠPrime": 5537,
    "Ġrats": 13623,
    "RF": 32754,
    "arrow": 6018,
    "%": 4,
    "ĠHaving": 11136,
    "uding": 26570,
    "Ġstrikingly": 47305,
    "ĠUSPS": 44640,
    "Ġdevised": 28964,
    "Ġproperty": 3119,
    "Ġlineage": 31144,
    "Ġwrapper": 29908,
    "Ġdisclosure": 13019,
    "ĠRe": 797,
    "Ġcoconut": 20132,
    "Ġhorns": 26771,
    "ĠDota": 30710,
    "ĠSUM": 35683,
    "aroo": 38049,
    "ORED": 32023,
    "ĠMolecular": 38275,
    "Ġsafeguard": 30925,
    "Xi": 42528,
    "ĠThirty": 29948,
    "married": 30526,
    "ĠCOP": 27975,
    "Ġcountries": 2678,
    "Ġabs": 2352,
    "ĠHearts": 20592,
    "ĠColumbia": 9309,
    "kg": 10025,
    "Figure": 11337,
    "beit": 15357,
    "Un": 3118,
    "thur": 11098,
    "Ġoverride": 20957,
    "roleum": 21945,
    "Ġpot": 1787,
    "Global": 22289,
    "Ġswall": 20301,
    "Ġrealization": 23258,
    "359": 30743,
    "Ġstraightforward": 15836,
    "Ġranc": 32205,
    "ĠChatt": 39444,
    "Ġdeployments": 40854,
    "Christmas": 44614,
    "Robin": 40656,
    "ĠRu": 11667,
    "Ġuncover": 23658,
    "Ġmolecule": 27756,
    "Ġunexpected": 10059,
    "ĠGent": 27391,
    "chens": 29937,
    "Ġprops": 25744,
    "ooming": 30602,
    "uter": 11894,
    "peat": 18267,
    "Pretty": 35700,
    "Ġfigures": 5538,
    ":/": 14079,
    "Ġscaling": 20796,
    "ę": 213,
    "Ġgift": 6979,
    "Ġwas": 373,
    "ĩ": 229,
    "ĠLisa": 15378,
    "Ġmonopoly": 22036,
    "ĠWayne": 13329,
    "Ġstaffers": 23033,
    "heavy": 23701,
    "Ġcannon": 21202,
    "224": 24137,
    "Ġcollaborative": 25408,
    "Ġtransferring": 26140,
    "run": 5143,
    "Ġkindly": 26820,
    "Ġcp": 31396,
    "gradation": 26317,
    "Ġdeprived": 26215,
    "Ġbutterfly": 35113,
    "Ġwave": 6769,
    "Ġforth": 6071,
    "building": 16894,
    "haired": 29972,
    "Ġvisual": 5874,
    "Ġallergic": 31856,
    "ĠCostume": 40051,
    "ĠReplace": 40177,
    "ĠJPMorgan": 43318,
    "ĠOrient": 35275,
    "Ġicon": 7196,
    "Ġradiant": 43888,
    "ĠAadhaar": 47727,
    "bert": 4835,
    "REAM": 32235,
    "entary": 48648,
    "amps": 9430,
    "ĠHeisman": 49537,
    "escap": 50141,
    "ity": 414,
    "universal": 40082,
    "beam": 40045,
    "Ġhorny": 42014,
    "Ġcamoufl": 31962,
    "Ġridge": 32525,
    "551": 43697,
    "Ġevade": 31236,
    "ĠAboriginal": 26432,
    "Ġvending": 47254,
    "ĠPo": 7695,
    "achelor": 19335,
    "Ġreferencing": 32578,
    "Information": 21918,
    "Ġcombo": 14831,
    "Ġwhist": 32262,
    "ĠEur": 36554,
    "Ġclub": 3430,
    "Windows": 11209,
    "Ġwritings": 19336,
    "program": 23065,
    "ĠAxe": 28570,
    "Bow": 39961,
    "ĠHermes": 41167,
    "Ġann": 1529,
    "urch": 2575,
    "ĠJared": 19116,
    "ĠExpect": 23600,
    "ĠFrazier": 44145,
    "ĠLINK": 34426,
    "ĠYounger": 45174,
    "ĠInternet": 4455,
    "Ġtraveled": 14113,
    "299": 22579,
    "jew": 47483,
    "Ġscratch": 12692,
    "ĠBrig": 16917,
    "Ġflickering": 50104,
    "Ġtrash": 13913,
    "ĠKem": 24854,
    "gyn": 40183,
    "IES": 11015,
    "Ġenlightened": 34964,
    "dar": 27455,
    "Ġmirror": 10162,
    "Ġbuddies": 35548,
    "²": 110,
    "Ġ1700": 35665,
    "Ġsufficiently": 17338,
    "Ġprestige": 29063,
    "Ġdynamic": 8925,
    "ĠParliament": 8411,
    "ont": 756,
    "ĠRO": 15107,
    "ĠMDMA": 34883,
    "RAL": 35296,
    "ppard": 43988,
    "Ġmaximum": 5415,
    "ĠDog": 8532,
    "time": 2435,
    "pad": 15636,
    "Ġsomething": 1223,
    "ĠIND": 24413,
    "affles": 48501,
    "Ġ30": 1542,
    "Ġdefends": 33446,
    "vich": 49547,
    "Non": 15419,
    "Ġultr": 23212,
    "ĠCorporate": 26040,
    "ens": 641,
    "ĠRAM": 13931,
    "Ġspotlight": 17838,
    "Ġexempl": 21433,
    "Howard": 32434,
    "Ġcapacitor": 43212,
    "if": 361,
    "Ġdeceased": 20117,
    "ĠGreenland": 30155,
    "inet": 42504,
    "marine": 42380,
    "America": 18165,
    "Ġstitch": 24695,
    "Ġcommentary": 14604,
    "ĠSou": 22862,
    "aye": 48822,
    "Ġ22": 2534,
    "Ġpiano": 19132,
    "Ġfilter": 8106,
    "Member": 27608,
    "rika": 28716,
    "Ġwarning": 6509,
    "ĠAuschwitz": 37992,
    "velt": 18065,
    "Ġundesirable": 38117,
    "Ġentries": 12784,
    "emo": 41903,
    "Ġmes": 18842,
    "Model": 17633,
    "Marc": 22697,
    "arsity": 45826,
    "Ġ206": 27253,
    "ignt": 16891,
    "Ġoperative": 28609,
    "ODUCT": 28644,
    "picture": 34053,
    "ev": 1990,
    "Ġdiction": 48589,
    "Ġclosures": 32149,
    "Ġdivisions": 17397,
    "Ġ})": 32092,
    "ĠDexterity": 40537,
    "Ġ1080": 17729,
    "ĠPets": 43578,
    "Ġ840": 48777,
    "Ġagreeing": 24093,
    "Ġrooted": 19459,
    "ĠWhere": 6350,
    "Loop": 39516,
    "icip": 4311,
    "Ġformulas": 32126,
    "ĠLev": 16042,
    "Ġdisbelief": 29894,
    "Ġdipped": 35300,
    "Football": 37316,
    "Ġlesson": 11483,
    "Ġfloats": 36016,
    "Ġveil": 30615,
    "Ġmouths": 28552,
    "Ġsane": 33241,
    "Ġ287": 38721,
    "Ġdecrypt": 42797,
    "Id": 7390,
    "ĠFir": 36425,
    "Dream": 30571,
    "Ġident": 1852,
    "Ġdownloaded": 15680,
    "ĠSonia": 20733,
    "selves": 2020,
    "ket": 7126,
    "Boston": 31710,
    "ĠMarlins": 38134,
    "Ġadventurers": 36843,
    "ilyn": 38020,
    "consumer": 49827,
    "Ġattributes": 12608,
    "Gs": 33884,
    "Pir": 46772,
    "ĠTube": 34510,
    "uably": 14632,
    "ĠTrou": 22141,
    "Ġexerc": 4208,
    "Ġmantra": 32628,
    "ĠGABA": 47046,
    "Ġcoasts": 48598,
    "cap": 11128,
    "ousy": 41808,
    "Ġdisobedience": 42366,
    "ppy": 14097,
    "Â²": 31185,
    "ĠAudit": 46450,
    "Ġjoins": 15449,
    "irus": 19397,
    "Ġtreatment": 3513,
    "ĠNotes": 11822,
    "ĠLouisville": 21525,
    "Ġdrivers": 6643,
    "Ġharmless": 23585,
    "Ġmediocre": 29956,
    "ILE": 41119,
    "BUS": 45346,
    "Z": 57,
    "emouth": 46880,
    "Ġconvened": 39828,
    "ĠScript": 12327,
    "Ġmaps": 8739,
    "ĠPL": 9297,
    "Ġinfinite": 15541,
    "balls": 21591,
    "Match": 23850,
    "Ġthicker": 29175,
    "011": 28555,
    "Ġstraps": 29552,
    "reading": 25782,
    "Ġhairs": 32908,
    "uced": 19513,
    "Ġkeynote": 37332,
    "--------": 982,
    "Ġnephew": 26301,
    "nov": 37302,
    "ĠABC": 9738,
    "Ġousted": 37822,
    "ĠRelief": 30323,
    "Ġbum": 39564,
    "ĠCase": 8913,
    "Ġsustain": 8080,
    "Ruby": 32101,
    "Maximum": 40541,
    "Ġstatic": 9037,
    "Ġparachute": 41015,
    "ĠLex": 17210,
    "Ġrifles": 18469,
    "VICE": 27389,
    "apo": 41817,
    "anooga": 42165,
    "Delta": 42430,
    "entimes": 43598,
    "lr": 14050,
    "ĠVisitors": 44535,
    "undai": 44591,
    "jack": 19650,
    "stat": 14269,
    "obo": 20391,
    "orative": 36478,
    "Ġevolves": 43576,
    "Ġdexter": 44405,
    "Ġnecessity": 14564,
    "Ġfounding": 16636,
    "Ġdefence": 9366,
    "ĠChong": 46892,
    "FW": 24160,
    "ĠGilmore": 47169,
    ":]": 47715,
    "Ġspurious": 49062,
    "leaning": 25909,
    "ĠAssault": 15590,
    "ĠEinstein": 24572,
    "ribing": 23098,
    "ilege": 41866,
    "ĠMata": 45332,
    ").": 737,
    "Ġcustomizable": 38322,
    "ĠNicarag": 33288,
    "Ġcoll": 2927,
    "Ġsimultane": 10108,
    "Ġaccompanying": 19249,
    "ĠTSA": 32453,
    "Ġdestruct": 15256,
    "Ġaversion": 41608,
    "Ġdelinqu": 32050,
    "notice": 42138,
    "Ġcrumble": 49478,
    "Spawn": 49855,
    "Ġforces": 3386,
    "Ġ2007": 4343,
    "ATER": 23261,
    "ĠBlaze": 33965,
    "Ġflagged": 34060,
    "ĠIssa": 47410,
    "ĠTow": 24324,
    "Ġmoss": 42853,
    "ĠQuant": 16972,
    "concert": 48415,
    "Zen": 47573,
    "ĠWE": 12887,
    "Awesome": 49061,
    "nette": 48115,
    "Ġlinger": 31402,
    "ogl": 28678,
    "ĠRelated": 19809,
    "Ġbackstage": 43090,
    "ĠâĢ¦": 3926,
    "hn": 21116,
    "Ġrounds": 9196,
    "ĠMechanics": 47570,
    "Ġhelic": 11573,
    "332": 32148,
    "Ġlivestream": 49683,
    "Ġrob": 3857,
    "Ġlust": 22279,
    "nation": 25729,
    "clean": 27773,
    "ĠGleaming": 49339,
    "763": 49641,
    "Ġlandsc": 25227,
    "ĠSteps": 32144,
    "Ġnil": 18038,
    "ĠÃ©": 38251,
    "acies": 13433,
    "ĠStrip": 18508,
    "ierre": 31058,
    "ĠAlas": 45315,
    "ĠCAM": 32421,
    "Ġrichest": 24348,
    "iles": 2915,
    "reddit": 10748,
    "Ġjs": 44804,
    "ĠLook": 6803,
    "View": 7680,
    "Ġfigured": 11638,
    "ĠWard": 12150,
    "Ġcrem": 36559,
    "Ġscram": 16701,
    "kes": 5209,
    "ĠRocky": 24534,
    "Ġmeasles": 30862,
    "Ġtwentieth": 29112,
    "Ġforefront": 26401,
    "ĠRipple": 40303,
    "éŃĶ": 20804,
    "andowski": 44391,
    "ettel": 47417,
    "Ġninety": 37989,
    "multipl": 47945,
    "Ġsleeper": 46594,
    "bj": 50007,
    "O": 46,
    "ĠLearning": 18252,
    "ĠDoes": 8314,
    "rupt": 3622,
    "Ġcreat": 1827,
    "Ġrooms": 9519,
    "Ġwax": 20302,
    "Height": 23106,
    "Ġlab": 2248,
    "ĠScott": 4746,
    "Ġmiraculous": 40336,
    "awatts": 46684,
    "ĠGlen": 20716,
    "matic": 13849,
    "MS": 5653,
    "Ġoffences": 20819,
    "Ġretreated": 35622,
    "despite": 41081,
    "ihara": 45902,
    "Ġguarding": 33294,
    "ball": 1894,
    "ribe": 4892,
    "Ġebook": 47179,
    "ĠSnapchat": 31546,
    "lucent": 35600,
    "ĠSit": 21131,
    "ĠMiche": 27407,
    "Override": 37961,
    "Ġoppressive": 30983,
    "ĠArmory": 45388,
    "oreAndOnline": 40240,
    "ĠPax": 48008,
    "hered": 6083,
    "Cause": 42323,
    "Ġcam": 12172,
    "Fight": 27365,
    "ĠMarxism": 30634,
    "cult": 40820,
    "Ġfueling": 43881,
    "hing": 722,
    "Ġpermissible": 32005,
    "Ġcrude": 14897,
    "Ġdoctrines": 32645,
    "airy": 13021,
    "Ġ103": 15349,
    "ĠDeb": 8965,
    "ĠNT": 24563,
    "eeks": 32201,
    "ĠMario": 10682,
    "udging": 38840,
    "Ġemissions": 8971,
    "ĠSummer": 10216,
    "acqu": 43561,
    "Ġpromotional": 18767,
    "ĠÙ": 18923,
    "Ġdigging": 18894,
    "basketball": 21265,
    "ĠGalaxy": 9252,
    "Ġscream": 8196,
    "ĠCavaliers": 29411,
    "blogs": 49096,
    "ADVERTISEMENT": 19053,
    "ĠPradesh": 25945,
    "ĠPowerPoint": 43563,
    "adata": 14706,
    "Ġarrog": 19563,
    "Ġplatform": 3859,
    "eston": 19115,
    "imeter": 16912,
    "ĠãĢĮ": 40283,
    "Ġwithdrawals": 43939,
    "staff": 28120,
    "UC": 9598,
    "Ġtriumph": 15499,
    "Ġchrom": 15358,
    "which": 4758,
    "Ġdairy": 17659,
    "ĠTanks": 31508,
    "Ġpreceded": 27165,
    "Analysis": 32750,
    "ĠPrague": 37079,
    "Ġflex": 7059,
    "Long": 14617,
    "Ġdancer": 38619,
    "Ġ257": 36100,
    "naissance": 47090,
    "ĠHUGE": 48068,
    "Ġfilesystem": 29905,
    "ĠAlong": 17159,
    "åĽ": 32368,
    "hover": 43753,
    "ĠAlexand": 21000,
    "Ġdoor": 3420,
    "ĠSpec": 18291,
    "Officials": 25883,
    "ĠPrometheus": 42696,
    "ĠMods": 43099,
    "Russell": 46325,
    "})": 30072,
    "usal": 6775,
    "Ġladder": 18002,
    "Ġwool": 25749,
    "Ġnegotiations": 9825,
    "axy": 6969,
    "Ġdisconnected": 28597,
    "ĠFF": 18402,
    "Ġtransmission": 11478,
    "ĠConsult": 21651,
    "Ġcontrols": 6973,
    "Ġjew": 12711,
    "aeda": 11641,
    "Ġ:=": 19039,
    "ĠAdventures": 15640,
    "Ġpestic": 20213,
    "ĠÂ¶": 30581,
    "Ġplainly": 30723,
    "ĠRobb": 31384,
    "ĠSUPER": 33088,
    "brids": 40637,
    "Ġdidn": 1422,
    "cean": 5829,
    "ĠGrind": 41379,
    "Ġnefarious": 42079,
    "ĠTheNitromeFan": 42090,
    "Ġwoo": 36440,
    "cephal": 43996,
    "Ġequate": 45423,
    "ĠDomestic": 29015,
    "623": 46872,
    "comed": 15128,
    "Ġreacting": 33413,
    "ual": 723,
    "Effects": 47738,
    "ĠJuventus": 40912,
    "ĠYellow": 12550,
    "FY": 43833,
    "ĠBecame": 30769,
    "ĠPetition": 43723,
    "Attorney": 46319,
    "ĠWheat": 34744,
    "ivably": 47994,
    "anks": 2283,
    "ĠBeijing": 11618,
    "ĠBreaking": 24942,
    "ĠIg": 28818,
    "ĠAUT": 47044,
    "Ġpoint": 966,
    "albeit": 45781,
    "Ġherds": 50040,
    "Ġpensions": 27581,
    "ĠSimply": 17973,
    "omp": 3361,
    "ored": 1850,
    "letters": 15653,
    "Ġvary": 7565,
    "Ġdisproportionate": 30982,
    "Ġrefreshing": 23056,
    "ĠHoover": 31865,
    "ĠEUR": 27526,
    "Spoiler": 31895,
    "Ġdivides": 36319,
    "ĠGirl": 7430,
    "Ġbowel": 35711,
    "Ġ[/": 46581,
    "jud": 10456,
    "ĠBever": 22185,
    "Ġflourish": 31147,
    "Ġcomrade": 47998,
    "Ġmildly": 33544,
    "ILA": 47164,
    "Ġoutline": 19001,
    "ĠYel": 28876,
    "omach": 10806,
    "T": 51,
    "ĠBulg": 37957,
    "Ġbreaker": 46408,
    "Ġirony": 21296,
    "ĠAnita": 38992,
    "Ġwhy": 1521,
    "Ġaim": 4031,
    "Ġnurturing": 47416,
    "ĠAlic": 34745,
    "Ġtalking": 3375,
    "ĠTitans": 18711,
    "Ġdrills": 26721,
    "acea": 44977,
    "Ġmicrophone": 21822,
    "ĠGal": 5027,
    "Bus": 16286,
    "Ġfinan": 17240,
    "242": 27877,
    "Resp": 19309,
    "ĠCursed": 29492,
    "Ġvit": 9090,
    "ien": 2013,
    "irsch": 47108,
    "ĠHispanics": 30714,
    "Ġofficer": 3818,
    "ĠBeckham": 37244,
    "Ġfruition": 41675,
    "ĠHib": 38315,
    "let": 1616,
    "ĠLucas": 15257,
    "ĠShib": 44254,
    "Ġana": 44763,
    "Ġrobbers": 46988,
    "ĠOg": 25686,
    "Ġproposed": 5150,
    "Ġbarric": 31853,
    "shaped": 16760,
    ")=(": 35793,
    "gram": 4546,
    "AA": 3838,
    "Ġestablishment": 9323,
    "Virgin": 34674,
    "orders": 6361,
    "urai": 16998,
    "\\\\\\\\": 13426,
    "idy": 19325,
    "Beg": 24586,
    "Ġentrenched": 32472,
    "ĠPack": 6400,
    "ĠKaf": 33913,
    "ĠTC": 17283,
    "Ġconstrained": 31070,
    "ĠRestoration": 36155,
    "iddling": 41367,
    "Ġsprinkle": 45799,
    "interested": 34339,
    "Ġknew": 2993,
    "ichever": 22617,
    "ĠTitle": 11851,
    "Ġaccuses": 35062,
    "esp": 9774,
    "Ġminim": 10356,
    "Ġcategorized": 37661,
    "Ġembod": 13968,
    "Ġaunt": 25949,
    "Value": 11395,
    "ĠEve": 12882,
    "Ġnuance": 47128,
    "Ġrusher": 47608,
    "44": 2598,
    "ĠMich": 2843,
    "ĠBR": 11177,
    ".\")": 19570,
    "Ġhanding": 22786,
    "Ġaccommodate": 15550,
    "Ġcommentators": 25699,
    "Ġnotoriously": 29862,
    "Ġnotes": 4710,
    "ffield": 31374,
    "Ġschemes": 16546,
    "Ġfees": 6642,
    "443": 34938,
    "ĠRIP": 44967,
    "Ġrefute": 45071,
    "Ben": 11696,
    "Ġexclus": 10293,
    "Ġdefine": 8160,
    "Ġdepict": 19583,
    "Ġactually": 1682,
    "Ġclutch": 22756,
    "Ġrecap": 26871,
    "ĠFel": 13937,
    "Ġcommem": 19512,
    "ĠLevels": 28248,
    "brance": 28031,
    "speed": 12287,
    "ĠFrey": 35086,
    "abil": 14991,
    "Ġresides": 29076,
    "lbs": 32133,
    "ework": 6433,
    "ĠMedian": 26178,
    "Ġclin": 5327,
    "Fort": 21926,
    "Stage": 29391,
    "Ġappeal": 5198,
    "âĢĶâĢĶâĢĶâĢĶâĢĶâĢĶâĢĶâĢĶ": 14950,
    "ĠYe": 11609,
    "Ġskies": 24091,
    "oth": 849,
    "shell": 29149,
    "izzard": 16191,
    "enko": 32720,
    "ocrats": 21988,
    "Ġha": 387,
    "ĠPlane": 36829,
    "Ġeducating": 36267,
    "Ġbrazen": 40033,
    "reads": 40779,
    "ĠNess": 41606,
    "ĠMedals": 42171,
    "Ġlapse": 42689,
    "ĠKazakh": 29766,
    "Ġreact": 6324,
    "lied": 18511,
    "Ġtakeover": 27011,
    "Ġenvironmentally": 34132,
    "Ġesteem": 42213,
    "ĠLena": 44131,
    "Ġsuitable": 11080,
    "KK": 16601,
    "ĠMMO": 30156,
    "ĠCorridor": 48994,
    "Ġcures": 50019,
    "forts": 47378,
    "ĠEdmonton": 21165,
    "Ġ(âĪĴ": 35508,
    "Ġwink": 41955,
    "Publisher": 46471,
    "Ġlegitimate": 9829,
    "iege": 14566,
    "Ã«": 26689,
    "373": 34770,
    "Lisa": 44203,
    "Ġcloudy": 40026,
    "ijah": 32778,
    "ayette": 27067,
    "Ġpositioning": 22097,
    "ĠTune": 42587,
    "ĠRelax": 46883,
    "Ġcommit": 4589,
    "CCC": 46361,
    "Ġabove": 2029,
    "Ġspatial": 21739,
    "Row": 25166,
    "Ġwidening": 38118,
    "Ġobscurity": 48326,
    "Talk": 25685,
    "host": 4774,
    "Transfer": 43260,
    "Ġevac": 12015,
    "ĸ": 244,
    "ĠWrong": 28843,
    "Mode": 19076,
    "_-": 22955,
    "ĠBahrain": 29066,
    "Think": 22073,
    "ĠSw": 2451,
    "Ġeconomics": 12446,
    "400": 7029,
    "Ġslate": 27589,
    "ĠAfter": 2293,
    "Ġethn": 33961,
    "ocamp": 26047,
    "ĠElect": 5903,
    "ĠDal": 12348,
    "Ġwithholding": 34180,
    "ĠFOIA": 41245,
    "Jay": 30568,
    "Ġclosest": 11706,
    "Ġaccelerate": 22636,
    "Ġstrengthening": 24175,
    "amation": 14755,
    "ĠDinosaur": 47808,
    "Ġmig": 37011,
    "ĠNewly": 43222,
    "Ġthis": 428,
    "Rail": 44631,
    "ĠPodcast": 16036,
    "Ġcontradict": 18372,
    "Ġnonetheless": 19018,
    "ĠWarhammer": 26715,
    "related": 5363,
    "................................": 8864,
    "ering": 1586,
    "Ġ145": 20299,
    "Ġtsun": 28798,
    "Ġpharmacy": 32763,
    "Ġgay": 5650,
    "Ġreturning": 8024,
    "ĠTommy": 19919,
    "Ġlovers": 20175,
    "baugh": 23768,
    "ĠClass": 5016,
    "ĠSwarm": 38293,
    "ĠIncreasing": 38921,
    "Å¡": 32790,
    "ĠIzzy": 46359,
    "ĠIllinois": 9486,
    "Ġtoy": 13373,
    "ĠInjury": 40883,
    "lement": 1732,
    "unciation": 24978,
    "Ġ[-": 25915,
    "Ġattent": 32649,
    "Ġcrest": 36893,
    "Ġrestored": 15032,
    "Ġinterrupts": 48237,
    "putable": 48840,
    "patch": 17147,
    "Ġfilled": 5901,
    "ultz": 22150,
    "Ġstrokes": 29483,
    "PET": 47731,
    "orm": 579,
    "income": 12519,
    "Ġtortured": 22485,
    "igrated": 38769,
    "search": 12947,
    "Ġstronghold": 32753,
    "ĠELECT": 46323,
    "ĠCAL": 33290,
    "Ġsaves": 16031,
    "izoph": 18115,
    "Ġfolk": 15504,
    "Ġfoe": 22156,
    "ĠTrees": 34925,
    "Ġhiring": 12965,
    "Ġnatives": 30962,
    "ĠTemperature": 34467,
    "Ġordered": 6149,
    "Ġlights": 7588,
    "Ġmisguided": 30168,
    "Ġ151": 25326,
    "Secret": 23725,
    "ĠPhilosophy": 26099,
    "Ġunfor": 28371,
    "Ġguideline": 40888,
    "Ġmiles": 4608,
    "Reb": 28951,
    "ĠUncle": 23169,
    "ĠBART": 42346,
    "phe": 36335,
    "Lie": 47918,
    "ĠBond": 12812,
    "Ġimmensely": 29731,
    "olitical": 13781,
    "Ġthreatened": 8556,
    "ĠLightning": 12469,
    "Ġbehaviours": 38975,
    "Ġpubs": 46972,
    "Ġdisaster": 9336,
    "jri": 38790,
    "instein": 11962,
    "ĠProducer": 30436,
    "Ġanecdotes": 44662,
    "mn": 10295,
    "ĠCrew": 17652,
    "ĠChanged": 32068,
    "Ġfantasy": 8842,
    "Ġantim": 37802,
    "Ġesoteric": 44894,
    "Ġthrott": 46692,
    "Ġ56": 7265,
    "ĠBird": 14506,
    "Ġbraking": 36682,
    "Ġburgl": 26574,
    "rency": 5227,
    "ĠVi": 16049,
    "ĠMickey": 27232,
    "ĠRonaldo": 36309,
    "crim": 50086,
    "alking": 18998,
    "ĠDeclaration": 24720,
    "Ġcontinents": 33431,
    "ĠStart": 7253,
    "Ġtextual": 40577,
    "Ġreplacing": 13586,
    "!.": 43179,
    "iov": 16664,
    "Ġbitters": 48666,
    "ĠMuse": 32887,
    "onz": 13569,
    "Ġquestioning": 14085,
    "Ġfacade": 43562,
    "Ġphysician": 14325,
    "oca": 11216,
    "Ġcompiled": 14102,
    "missive": 33532,
    "ĠBezos": 48607,
    "ĠLAST": 41894,
    "ĠAnaly": 16213,
    "ĠCycling": 25550,
    "Ġidentical": 10411,
    "Mix": 35608,
    "Ġ''": 10148,
    "Ġtruths": 24279,
    "\"},{\"": 11919,
    "anza": 35819,
    "Ġtin": 19783,
    "210": 21536,
    "ĠBlackburn": 42603,
    "Ġ500": 5323,
    "ainers": 50221,
    "Ġfunctionality": 11244,
    "pc": 14751,
    "Ġdraped": 38425,
    "Ġ1999": 7358,
    "Ġempt": 23909,
    "Ġwasting": 24430,
    "cms": 46406,
    "Ġburden": 10538,
    "Ġcares": 16609,
    "ĠExecutive": 10390,
    "Version": 14815,
    "Ġongoing": 7044,
    "itars": 27745,
    "ĠExperience": 16386,
    "ĠHed": 30920,
    "Ġmurderers": 38313,
    "ĠSurve": 28095,
    "lost": 33224,
    "OPE": 32135,
    "Ġif": 611,
    "Ġur": 2956,
    "Ġfluid": 11711,
    "Ġlightning": 14357,
    "Ġ],": 16589,
    "Ġunsafe": 21596,
    "Ġshaved": 39273,
    "NBC": 13175,
    "ĠBermuda": 41410,
    "Ġdab": 45553,
    "GAME": 47109,
    "Ġcollapsed": 14707,
    "ĠSpecies": 28540,
    "Ġold": 1468,
    "Ġproletariat": 30444,
    "Ġbothered": 20466,
    "tk": 30488,
    "Ġyogurt": 32132,
    "Ġbc": 47125,
    "Ul": 47920,
    "ĠDelhi": 12517,
    "Ġinstalls": 42027,
    "Ġfunctionally": 48410,
    "Ġnarrow": 7135,
    "igrant": 9893,
    "Ġsteel": 7771,
    "away": 8272,
    "irie": 28191,
    "Ġestranged": 44585,
    "About": 8585,
    "Ġresponse": 2882,
    "Ġfor": 329,
    "Ġdepth": 6795,
    "tail": 13199,
    "Ġstats": 9756,
    "Ġsoup": 17141,
    "Ġexamining": 17247,
    "Ġblinked": 40360,
    "ĠSubcommittee": 42187,
    "-[": 49146,
    "Ġtransfers": 16395,
    "atten": 41769,
    "Af": 17584,
    "ramid": 20255,
    "input": 15414,
    "Ġintake": 10337,
    "Ġretirement": 10737,
    "ĠLit": 25659,
    "ĠClinic": 26690,
    "bags": 34005,
    "Most": 6943,
    "Ġcunning": 34218,
    "Ġreckon": 43851,
    "alions": 50022,
    "ÃĥÃĤ": 5808,
    "especially": 16480,
    "ĠAccept": 21699,
    "ĠSwedish": 14023,
    "Working": 28516,
    "ĠEach": 5501,
    "ĠAthletic": 29007,
    "rea": 21468,
    "ĠPush": 23691,
    "Ġpressured": 32098,
    "ĠBO": 16494,
    "ced": 771,
    "Ġring": 5858,
    "party": 10608,
    "ĠMet": 3395,
    "ĠAdvis": 17014,
    "ĠHDR": 33675,
    "ĠRestrict": 37163,
    "Ġcutter": 38121,
    "ĠRef": 6524,
    "ĠSuperman": 14951,
    "118": 16817,
    "Ġtweets": 12665,
    "ĠDwarf": 33196,
    "rowing": 11577,
    "GS": 14313,
    "ĠAven": 15053,
    "Ġvari": 5553,
    "Con": 3103,
    "ĠTakes": 33687,
    "Ġconducts": 36721,
    "StreamerBot": 37574,
    "Ġdenounce": 38639,
    "Ġkissing": 25847,
    "Reviewed": 40266,
    "ĠCathy": 40636,
    "Ġdistributed": 9387,
    "Walk": 35963,
    "Ġdivest": 41905,
    "Ph": 2725,
    "straight": 42729,
    "Ġconfirming": 23366,
    "Ġcongratulate": 43647,
    "ĠDaryl": 44385,
    "ĠAntiqu": 47789,
    "ĠMidlands": 47989,
    "Ġgross": 10319,
    "Ġneocons": 43530,
    "inburgh": 22222,
    "Ġexits": 30151,
    "Ġ1300": 36058,
    "Crew": 46724,
    "æŃ¦": 49476,
    "chi": 11072,
    "ĠNF": 41288,
    "Ġ94": 10048,
    "Ġforty": 16571,
    "Ġcollaborating": 38152,
    "Ġclashed": 37003,
    "Ġensl": 25563,
    "Ġviz": 48569,
    "rell": 11252,
    "ĠShit": 41356,
    "Ġorigins": 15587,
    ".?": 40791,
    "ĠPand": 16492,
    "ĠBert": 22108,
    "Ġmajority": 3741,
    "igious": 10956,
    "ĠBones": 31823,
    "opening": 29443,
    "ĠHydro": 32116,
    "Ġcrou": 33838,
    "ives": 1083,
    "ĠCompl": 20011,
    "Ġundisclosed": 33457,
    "Ġinstinctively": 43045,
    "ĠArmenia": 32369,
    "Ġexpress": 4911,
    "met": 4164,
    "Ġfleet": 11026,
    "cients": 35611,
    "Mine": 24461,
    "ect": 478,
    "Ġfocuses": 13692,
    "ĠReader": 25342,
    "andum": 25933,
    "ocks": 3320,
    "ĠSachs": 25158,
    "ĠDRAGON": 49819,
    "ĠLicensed": 49962,
    "lear": 3238,
    "ĠArcher": 19333,
    "Ġshop": 6128,
    "Ġsaying": 2282,
    "Ġremarks": 10252,
    "Ġinfants": 18775,
    "Ġunsupported": 24222,
    "ĠCVE": 24640,
    "ĠDPS": 25366,
    "Ġrefund": 12929,
    "Ġsolic": 25806,
    "Ġgreedy": 31828,
    "Ġqualifier": 39265,
    "Ġattainment": 40375,
    "Ġartisan": 43259,
    "ĠCarnage": 44177,
    "å§": 34650,
    "ĠArtist": 18902,
    "Ġcomplimentary": 40701,
    "Ġposterior": 34319,
    "vernight": 47443,
    "Ġfiasco": 49023,
    "arre": 9624,
    "%);": 49563,
    "Ġ379": 45937,
    "Ġcottage": 36856,
    "Ġtransfer": 4351,
    "scene": 29734,
    "More": 5167,
    "Ġseed": 9403,
    "quality": 13237,
    "ĠTomb": 18528,
    "ĠSand": 3837,
    "urity": 1684,
    "mother": 13552,
    "ĠProgress": 18387,
    "ĠDh": 20529,
    "Ġreal": 1103,
    "Cle": 34349,
    "585": 38905,
    "Ġtransistor": 49176,
    "whel": 30613,
    "Ġunexpl": 31286,
    "Ġselects": 40573,
    "ĠStarter": 37460,
    "Ġcub": 13617,
    "Ġepisode": 4471,
    "Ġtrouble": 5876,
    "pie": 21749,
    "iller": 4665,
    "ĠEthics": 25092,
    "ãģĭ": 27370,
    "Circ": 31560,
    "iblings": 19389,
    "Url": 28165,
    "ount": 608,
    "assic": 31635,
    "Ġghetto": 46482,
    "ĠFl": 1610,
    "ĠSanders": 5831,
    "Ġdirectories": 29196,
    "ĠAnnie": 25860,
    "ĠAntioch": 46590,
    "Ġupdates": 5992,
    "cube": 40296,
    "Ġfinely": 32566,
    "ĸļ": 31204,
    "fe": 5036,
    "Ġsubjects": 7481,
    "Ġphysically": 10170,
    "211": 21895,
    "agne": 21080,
    "ĠBun": 28515,
    "ĠZhao": 29436,
    "Ġresurrect": 27603,
    "ĠArgentine": 36399,
    "ĠMoor": 31451,
    "ĠDisable": 31529,
    "Ġextracting": 37895,
    "fts": 35594,
    "ĠFresno": 39927,
    "positive": 24561,
    "ital": 1287,
    "ĠBenefits": 30582,
    "vacc": 37839,
    "Transaction": 48720,
    "ĠAGA": 36218,
    "132": 19924,
    "ĠHR": 15172,
    "ĠSadly": 27213,
    "ocolate": 9140,
    "Ġahead": 4058,
    "AH": 18429,
    "ĠCanyon": 22099,
    "ĠTrain": 16835,
    "\\\">": 38214,
    "Ġclosed": 4838,
    "porting": 26527,
    "Ġdictates": 35054,
    "packing": 41291,
    "ipation": 25857,
    "##": 2235,
    "igm": 17225,
    "Ġovarian": 45546,
    "ĠPlant": 16561,
    "Ġmisunder": 16782,
    "ĠDaughter": 30332,
    "ĠFlav": 33026,
    "mast": 47616,
    "Ġshines": 32481,
    "Trivia": 23854,
    "Ġprepare": 8335,
    "Ġaccompanied": 11791,
    "ĠBloomberg": 15689,
    "ell": 695,
    "Ġstere": 10268,
    "Ġcrush": 19813,
    "703": 36809,
    "Ġhypertension": 37454,
    "Ġveteran": 9298,
    "obiles": 36329,
    "ĠWeekly": 18168,
    "Ġcrippling": 37953,
    "Ġeighth": 16974,
    "Ġsolder": 42809,
    "Ġcontenders": 29467,
    "ĠBeetle": 47464,
    "Ġbadly": 11234,
    "Ġnormally": 7685,
    "Ġdrama": 10512,
    "ĠBudget": 15401,
    "ĠWiley": 43424,
    "Ġtreatments": 13820,
    "Ġsem": 5026,
    "Ġcluster": 13946,
    "UV": 31667,
    "Ġspiders": 26120,
    "\":[{\"": 32509,
    "Ġprob": 1861,
    "Ġundergo": 17777,
    "ĠMt": 18632,
    "Cube": 29071,
    "ĠACC": 15859,
    "Ġmoisture": 20160,
    "Ġdespair": 20234,
    "Ġrulings": 31532,
    "clipse": 17043,
    "Amb": 35649,
    "aign": 1784,
    "ĠChar": 3178,
    "rows": 8516,
    "294": 27696,
    "Ġoccasions": 12432,
    "Ġhis": 465,
    "ĠCreek": 13509,
    "ĠFinn": 15368,
    "ĠPART": 16652,
    "Ġrequesting": 20623,
    "ĠHousing": 16797,
    "Ġeye": 4151,
    "ĠRas": 28513,
    "ĠBucks": 29751,
    "ĠJay": 9180,
    "Ġwast": 25057,
    "mediated": 38363,
    "attacks": 38458,
    "itudes": 10455,
    "Meanwhile": 10294,
    "isky": 34041,
    "Ġmoratorium": 41772,
    "alert": 44598,
    "Nothing": 18465,
    "Ġeverlasting": 45697,
    "ĠTH": 2320,
    "eria": 5142,
    "Ġconstitution": 11784,
    "caster": 17970,
    "ĠAffordable": 19258,
    "Ġlaundry": 25724,
    "Ġdiverted": 35673,
    "ĠVish": 36900,
    "Pop": 16979,
    "ĠLongh": 47513,
    "ĠLX": 44988,
    "ĠLevel": 5684,
    "Ġrecru": 8921,
    "ĠMaterial": 14633,
    "itters": 45512,
    "Ġforwarding": 43448,
    "ĠConfeder": 16986,
    "emonium": 33044,
    "Ġtranscript": 14687,
    "leader": 27940,
    "ĠClaire": 20758,
    "Ġhunter": 19177,
    "Ġshelves": 20726,
    "ĠApparently": 18626,
    "Hyd": 40436,
    "Ġwinning": 5442,
    "Ġflower": 15061,
    "ĠChurches": 46446,
    "Ġstep": 2239,
    "burgh": 9228,
    "Ġtranquil": 46944,
    "RA": 3861,
    "Ġchanting": 31138,
    "172": 23628,
    "Unknown": 20035,
    "RECT": 23988,
    "sand": 38142,
    "ĠAUTH": 37195,
    "ĠWRITE": 44423,
    "ĠTire": 45942,
    "themed": 26966,
    "Ġdistinctive": 18778,
    "cause": 25587,
    "ĠAnkara": 28760,
    "Ġradicals": 32842,
    "Ġtheolog": 37275,
    "Speed": 22785,
    "uther": 12866,
    "Ġtainted": 36912,
    "Cru": 27535,
    "Ġconverting": 23202,
    "Ġnap": 25422,
    "Ġupbringing": 40678,
    "iated": 12931,
    "Ġstabbed": 21512,
    "after": 8499,
    "ECT": 9782,
    "Find": 16742,
    "Ġcoincided": 41085,
    "Ġhonoured": 45870,
    "hof": 39891,
    "Ġdefamation": 36662,
    "Ġgasp": 47440,
    "157": 18458,
    "Ġcats": 11875,
    "Ġpoker": 27101,
    "Ġexchanging": 39167,
    "Ġeffectiveness": 13530,
    "Ġdeflation": 46507,
    "ĠChristensen": 49195,
    "iced": 3711,
    "ĠGri": 20914,
    "ibility": 2247,
    "dule": 5950,
    "Ġconditioned": 31964,
    "squ": 16485,
    "ĠKremlin": 19077,
    "Ġdonating": 29798,
    "ĠCONC": 39962,
    "adult": 49922,
    "Ġengineers": 12037,
    "Ġelement": 5002,
    "Ġunrest": 17093,
    "itaire": 26627,
    "fi": 12463,
    "hent": 6925,
    "Ġclo": 28050,
    "ĠQiao": 45724,
    "Ġexperimental": 11992,
    "ĠSEN": 44738,
    ":,": 45299,
    "Ġ395": 42321,
    "iera": 41976,
    "bel": 6667,
    "âĢ¦âĢ¦": 7398,
    "Ġsq": 19862,
    "Ġomega": 37615,
    "ameda": 49637,
    "Ġterritory": 7674,
    "ĠSenator": 8962,
    "Ġscathing": 44523,
    "ĠProcessor": 32893,
    "ĠLind": 9329,
    "main": 12417,
    "Ġdiscomfort": 23597,
    "ĠYear": 6280,
    "ĠOblivion": 34181,
    "immune": 38345,
    "Ġandroid": 19286,
    "Ġsector": 6567,
    "Ġathlete": 16076,
    "Ġcorrespondent": 21076,
    "Ġpedoph": 27706,
    "apeshifter": 29554,
    "RAY": 30631,
    "ahah": 36225,
    "DEC": 41374,
    "ĠFleming": 42439,
    "Ġsilent": 10574,
    "ĠQaeda": 17942,
    "ĠGuarant": 34234,
    "Sarah": 29284,
    "ĠZombies": 23274,
    "chers": 3533,
    "ĠVed": 36101,
    "Ġmerciless": 40618,
    "ĠIrma": 41224,
    "Ġprovocative": 28695,
    "Although": 7003,
    "Box": 14253,
    "Ġwindshield": 38866,
    "Ġp": 279,
    "ĠMind": 10175,
    "Ġdx": 44332,
    "Ġdyn": 37860,
    "Ġsoundtrack": 21751,
    "ĠFolder": 48107,
    "ism": 1042,
    "Ġredundancy": 49052,
    "ĠCapt": 6790,
    "Ġcryptoc": 15149,
    "Ġmanif": 19871,
    "ĠInput": 23412,
    "ĠPsychiat": 26357,
    "ilit": 6392,
    "Ġencour": 4052,
    "ĠNot": 1892,
    "Ġorigin": 8159,
    "Ġbeneath": 11061,
    "Ġdime": 37062,
    "parable": 37064,
    "ĠHub": 14699,
    "Ġshocks": 32392,
    "prov": 15234,
    "Ġsensation": 18098,
    "kill": 12728,
    "Ġeclipse": 25872,
    "clerosis": 31399,
    "akens": 31627,
    "ĠAstro": 35167,
    "ĠSample": 27565,
    "Ġquiz": 38964,
    "Ġtheatre": 21421,
    "Ġconceivable": 40324,
    "Vi": 38432,
    "Ġilluminated": 35162,
    "uddle": 24500,
    "Ġfundamentalist": 42277,
    "ĠBliss": 44044,
    "Ġsa": 473,
    "ĠMcKenzie": 44311,
    "Kate": 45087,
    "Ġterrorism": 8649,
    "joined": 46416,
    "Color": 10258,
    "ĠPSU": 48189,
    "Ġ213": 28658,
    "Ġhur": 6990,
    "imes": 999,
    "kus": 45614,
    "Ġchildcare": 42857,
    "Ġfut": 13294,
    "ruction": 2762,
    "ĠSources": 26406,
    "Ġoperating": 5361,
    "Ġstriking": 8871,
    "Ġrequiring": 10616,
    "Ġpunt": 35363,
    "rigan": 35631,
    "Ġawoken": 43532,
    "ites": 2737,
    "Ġsupra": 28614,
    "emate": 47686,
    "Ġterminals": 30237,
    "Ġcommenting": 26387,
    "Ġshove": 38332,
    "ĠDynasty": 30908,
    "bul": 15065,
    "ĠBishop": 16559,
    "century": 14792,
    "ĠEgyptians": 32658,
    "Ġhust": 33376,
    "Ġsurpassed": 30612,
    "ĠNero": 46810,
    "ovi": 47297,
    "Copyright": 15269,
    "Ġmisunderstanding": 29789,
    "ack": 441,
    "ilitation": 18194,
    "Ġsubmissions": 22129,
    "oux": 22193,
    "Ġ27": 2681,
    "Women": 18495,
    "CE": 5222,
    "Ġwhale": 22206,
    "ints": 29503,
    "oodoo": 36038,
    "ortion": 5817,
    "Ġsalad": 20698,
    "really": 27485,
    "Reloaded": 36726,
    "ĠLas": 10123,
    "gel": 25280,
    "Ġzip": 19974,
    "Ġleakage": 47988,
    "ĠTen": 9368,
    "++": 4880,
    "Ġmathemat": 11896,
    "back": 1891,
    "Ġbullish": 50079,
    "Ġantibiotics": 22392,
    "ULE": 24212,
    "Ġclear": 1598,
    "Ġcircuits": 24907,
    "ĠManz": 37734,
    "Ġadministrations": 34790,
    "Ġmoderation": 34401,
    "ĠNig": 13732,
    "hearted": 20122,
    "Ġequation": 16022,
    "ĠSide": 12075,
    "ĠLiberty": 14734,
    "ieval": 14671,
    "236": 24940,
    "owners": 15605,
    "Ġ228": 29041,
    "ĠResearch": 4992,
    "onda": 13533,
    "458": 29334,
    "Ġexecutes": 42985,
    "icative": 43058,
    "VW": 30133,
    "conservative": 43218,
    "ĠMSM": 44401,
    "Ġsalty": 36021,
    "Ġcelebr": 4681,
    "Ġappointment": 12557,
    "Ġtablespoons": 30064,
    "Ġinstit": 6113,
    "schild": 35058,
    "David": 11006,
    "Ġkicking": 17997,
    "Ġmultiplication": 48473,
    "Ġbegs": 38609,
    "Ġbuilding": 2615,
    "acks": 4595,
    "ĠRomney": 8431,
    "ĠIslamic": 5533,
    "Ġrating": 7955,
    "URL": 21886,
    "Ġreacted": 22798,
    "er": 263,
    "ĠShang": 45797,
    "Cole": 46509,
    "ĠWorlds": 19946,
    "Ġagricultural": 14240,
    "ĠTouch": 15957,
    "writ": 8933,
    "ĠEsk": 47534,
    "OSE": 14058,
    "ĠVas": 23663,
    "Ġclearly": 4084,
    "Ġcomparisons": 17909,
    "ortium": 25182,
    "ĠSoul": 8653,
    "Ġcurl": 29249,
    "Ġstrips": 22670,
    "ĠDonn": 48007,
    "Ġfavour": 7075,
    "Ġdescrib": 2225,
    "ãĢĳ": 31817,
    "ĠClaude": 40559,
    "Ġelaborated": 45934,
    "Ġcis": 33325,
    "Ġrenaissance": 48917,
    "Ġwaved": 26834,
    "Ġtele": 5735,
    "is": 271,
    "Ġrelief": 8259,
    "Ġslaves": 13384,
    "Ġerect": 16417,
    "Ġalright": 23036,
    "ĠCentral": 5694,
    "baum": 24738,
    "289": 27693,
    "æŃ": 29826,
    "Ġlabelled": 30538,
    "Ġexplosion": 11278,
    "Block": 12235,
    "Ġcatching": 16508,
    "ĠMel": 5616,
    "Ġsplash": 22870,
    "ĠBob": 5811,
    "ultane": 9560,
    "ĠFeel": 18571,
    "yl": 2645,
    "rified": 41301,
    "aged": 1886,
    "OT": 2394,
    "verbs": 46211,
    "Hon": 29478,
    "ĠNil": 29213,
    "ĠHavana": 40274,
    "ĠGiov": 36089,
    "793": 44750,
    "Ġashore": 45817,
    "ĠToday": 6288,
    "ĠCompanies": 24382,
    "ĠElectrical": 40224,
    "istar": 47229,
    "ĠBuzz": 15753,
    "Washington": 17402,
    "On": 2202,
    "344": 33535,
    "Ġhous": 3821,
    "Ġprisoners": 10577,
    "Ġvague": 13443,
    "Charles": 28711,
    "Ġresisting": 28943,
    "ienne": 37938,
    "ologies": 5823,
    "Ġborrowing": 23669,
    "Ġreaff": 30384,
    "759": 38314,
    "ĠChecking": 39432,
    "Ġut": 3384,
    "ower": 789,
    "General": 12218,
    "ĠFrozen": 23673,
    "thel": 37274,
    "Ġamnesty": 33652,
    "SM": 12310,
    "Ġcockpit": 25762,
    "tp": 34788,
    "ĠAPI": 7824,
    "iers": 3183,
    "ĠJapanese": 4960,
    "Ġammo": 16778,
    "ĠBooth": 36389,
    "372": 36720,
    "player": 7829,
    "Ġanchors": 43360,
    "Ġheroic": 23523,
    "ĠRhode": 24545,
    "Ġspontaneous": 25319,
    "ĠDeV": 29619,
    "Ġic": 14158,
    "319": 35175,
[...]
